#version: 0.2
s ></w>
u n</w>
a n
< s></w>
< /
</ s></w>
n e</w>
e s</w>
u ne</w>
o u
e n
d e</w>
m m
a r
an t</w>
h o
e u
mm e</w>
c h
l e</w>
e n</w>
o n
v e
t r
s u
q u
a i
e t</w>
d an
d '
dan s</w>
en t</w>
su r</w>
t i
ho mme</w>
a ve
d es</w>
s e</w>
t e</w>
ave c</w>
o i
e r
o r
o n</w>
a s
a u
r e</w>
e s
f e
l a</w>
r i
b l
eu x</w>
i l
d e
s on
g ar
s i
a l
a u</w>
g e</w>
fe mme</w>
l '
r e
r ou
d eux</w>
e r</w>
r s</w>
p l
j ou
c ou
p e
d i
r o
t s</w>
d' un</w>
es t</w>
a t
n es</w>
qu e</w>
p er
e m
mm es</w>
u e</w>
l es</w>
m ar
per son
r t</w>
as si
b ou
p e</w>
j e
p ar
il le</w>
p or
l i
tr e</w>
eu r</w>
t en
ch i
é e</w>
t ant</w>
c o
d' une</w>
ai n</w>
p r
bl an
ch e</w>
t u
t a
v i
e au</w>
oi r</w>
i n
re gar
r a
b al
v ant</w>
e t
gar ç
bou t</w>
t an
en f
de bout</w>
e l
person nes</w>
son t</w>
s on</w>
t es</w>
f ai
a m
p i
eu rs</w>
je une</w>
u i
e i
di s</w>
tan dis</w>
p ou
de vant</w>
ho mmes</w>
d u</w>
f ille</w>
h i
o t
pe ti
g rou
grou pe</w>
garç on</w>
assi s</w>
en s</w>
p a
chi en</w>
b le</w>
t ou
v ê
qu '
s es</w>
oi s</w>
s ant</w>
o l
r ue</w>
s a
rou ge</w>
c i
- s
é l
-s hi
t é</w>
è re</w>
por tant</w>
pl a
n oir</w>
b r
e u</w>
vê t
mar ch
t -shi
p o
blan c</w>
pou r</w>
c e</w>
au x</w>
è s</w>
tr a
t-shi rt</w>
p ho
l u
an ts</w>
d é
s ou
s te</w>
s au
regar d
a g
g ens</w>
l l
ch e
tr ois</w>
tr ain</w>
ve r
c ô
bl eu</w>
fe mmes</w>
m ent</w>
fai t</w>
cou r
r an
b e</w>
enf ant</w>
enf ants</w>
p ro
pr ès</w>
t er
é s</w>
s a</w>
qu i</w>
ch em
che v
tu re</w>
ti ent</w>
cô té</w>
chem i
c on
peti t</w>
m on
d es
r es</w>
pho t
l or
m u
regar de</w>
au tre</w>
l on
m e</w>
é ri
c u
s em
et te</w>
m i
m an
l a
n i
b o
a p
b â
jou e</w>
i l</w>
c as
ai ll
en d
f on
s '
et tes</w>
ten ant</w>
person ne</w>
g ran
el le</w>
on s</w>
l' eau</w>
n oi
ti on</w>
bal l</w>
qu el
vêt u</w>
il l
jou ant</w>
ai r</w>
en ts</w>
bl eu
ei l</w>
v él
pa r</w>
ar ri
o m
f i
f il
a d
s ent</w>
as i
j eu
j a
a n</w>
r é
phot o</w>
ch a
ta ble</w>
p an
f ou
ja une</w>
chemi se</w>
tra v
qu es</w>
jeu nes</w>
e x
bâ ti
vél o</w>
ho rs</w>
l eurs</w>
a ti
t ent</w>
er s</w>
ve rt</w>
b u
pl u
n ei
jou ent</w>
qu' un</w>
peti te</w>
on n
lor s</w>
regard ant</w>
t oir</w>
de hors</w>
pla n</w>
bâti ment</w>
tr ot
v oi
p as
mar che</w>
lu n
d er
blan che</w>
lun ettes</w>
f o
a l</w>
o t</w>
g ri
c l
ve ste</w>
s k
b at
t al
qu a
assi se</w>
su s</w>
f or
trot toir</w>
tou t</w>
s ol
o s</w>
sou ri
c ho
des sus</w>
b re</w>
fai sant</w>
sau te</w>
regard ent</w>
chev eux</w>
b ar
b an
or an
bal l
ê te</w>
n s</w>
l' air</w>
fou le</w>
ri ère</w>
pe au</w>
o b
march ant</w>
p u
der rière</w>
g u
pla ge</w>
sem ble</w>
m é
bleu e</w>
por te</w>
â g
c a
s se</w>
tr es</w>
è re
g es</w>
es c
g ui
é es</w>
b as
cou rt</w>
t ai
nei ge</w>
h er
c ar
è ne</w>
b or
s o
ball on</w>
si eurs</w>
pr en
m ain</w>
ve rs</w>
a c
ère -
arri ère-
ro se</w>
quel que</w>
fo ot
plu sieurs</w>
b i
co m
arrière- plan</w>
co s
cho se</w>
t éri
tou r</w>
t ar
au tres</w>
o c
fil les</w>
em ent</w>
v e</w>
gran d</w>
br un</w>
asi ati
s tr
g ne</w>
ten ue</w>
noi re</w>
s er
r n
b é
her be</w>
h au
oran ge</w>
ar d</w>
tr ave
h a
pr é
march ent</w>
sou s</w>
a ge</w>
é qu
su r
qua tre</w>
ver te</w>
chi ens</w>
- dessus</w>
eu se</w>
c r
gui tar
cha peau</w>
c or
cos tu
foot ball</w>
il i
v ille</w>
ch an
l le</w>
téri eur</w>
s s
m aill
cou p
m ai
c s</w>
ter r
mu r</w>
r es
c am
él é
lon g
b a
au tour</w>
l' herbe</w>
n ent</w>
ro ch
bl on
l eur</w>
d s</w>
sol eil</w>
t e
ro be</w>
bal le</w>
r on</w>
n ou
fon t</w>
g ro
b ill
s c
i m
trav aill
guitar e</w>
b e
m ot
c ui
r ant</w>
garç ons</w>
ra p
end ant</w>
qu' il</w>
par c</w>
s al
on t</w>
l an
cour se</w>
assi ses</w>
sa ge</w>
sa c</w>
p oi
o y
b ois</w>
t eau</w>
m es</w>
m at
l ant</w>
esc al
f f
s ho
l' autre</w>
qu ette</w>
mar ron</w>
en semble</w>
sc ène</w>
m ag
at ten
c an
équ i
ter re</w>
ha bill
f a
ch es</w>
t on</w>
pan tal
c li
terr ain</w>
lon g</w>
l' un</w>
jou eur</w>
bl i
t at
gar s</w>
t élé
ou v
i e</w>
ch am
jou rn
j u
maill ot</w>
ban c</w>
vêt ue</w>
str u
u ni
pho ne</w>
p en
e l</w>
asiati que</w>
sk at
di s
ê tre</w>
m ili
bor d</w>
t ête</w>
lu i</w>
hau t</w>
ra y
c h</w>
b é</w>
je an</w>
tr i
pantal on</w>
s ci
vi ol
u ti
t er</w>
ch au
voi ture</w>
gri s</w>
em ents</w>
r ri
tr ès</w>
costu me</w>
cas que</w>
e ts</w>
uti li
sem bl
pl an
d os</w>
t au
ui t</w>
pe c
u es</w>
mon ta
m a
cas quette</w>
vêt ements</w>
sho rt</w>
nou rri
coup le</w>
p er</w>
bé bé</w>
bo ard</w>
s pec
rou te</w>
c y
co lor
b ra
ch ar
n o
gro s</w>
chev al</w>
trav ai
n om
mat ch</w>
d' autres</w>
at tra
pl ei
n u
l e
ex térieur</w>
c er
bat eau</w>
b ri
ra m
oi t</w>
man g
cui si
trave r
pren d</w>
br es</w>
gran de</w>
en tre</w>
é c
sau tant</w>
oi s
d' eau</w>
am éri
télé phone</w>
rou ges</w>
pré par
p endant</w>
sci ne</w>
re m
pi scine</w>
ouv ri
mag asi
magasi n</w>
s or
r as
vê tu
u l
sa ble</w>
oi re</w>
nourri ture</w>
cham p</w>
mu si
so l</w>
qu' une</w>
d' ar
a de</w>
w e
mili eu</w>
f l
cour ant</w>
t or
po se</w>
as se</w>
améri c
co l
a f
cou p</w>
s er</w>
au -dessus</w>
ai se</w>
i er</w>
g n
fa ce</w>
ad ul
s tes</w>
pe in
skat e
s we
cy cli
fai re</w>
é r
t eur</w>
man teau</w>
g ra
bas e
par le</w>
ti que</w>
s an
o u</w>
g i
v re</w>
pas se</w>
ti er</w>
pro m
noi rs</w>
g il
con tre</w>
f r
des c
d eur</w>
bra s</w>
l' homme</w>
pu bli
m ou
journ ée</w>
e aux</w>
ai re</w>
skate board</w>
e ant</w>
blan cs</w>
res tau
pi e
cour ent</w>
ap par
al long
vi sage</w>
s ta
c in
' '</w>
vi eil</w>
v é
p é
ni s</w>
` `</w>
oi n</w>
âg é</w>
r u
li t</w>
m ents</w>
f rap
bas k
s en
march é</w>
c le</w>
équi pe</w>
il s</w>
blon de</w>
souri ant</w>
de r</w>
c ti
ui e</w>
ten nis</w>
restau rant</w>
b ain</w>
s sant</w>
po li
arri ère</w>
v ol
mi cr
micr o</w>
ar bre</w>
sal le</w>
par ti
l ent</w>
c tion</w>
y ant</w>
souri t</w>
cam i
d onn
bal an
atten d
por table</w>
n at
oc é
t ée</w>
océ an</w>
ras sembl
pi er
mai ns</w>
col li
t om
l è
g la
d or
monta gne</w>
qu' elle</w>
chemi n</w>
par -dessus</w>
cin q</w>
a t</w>
j et</w>
for me</w>
c k
t o
pi ste</w>
nom br
l' océan</w>
p ri
mar i
poi n
mot o</w>
tou r
il les</w>
f leurs</w>
tr ou
s' ap
g ée</w>
end re</w>
d ra
v ag
ui ts</w>
o g
ac c
âg ée</w>
ten te</w>
rem pl
ob je
je u</w>
eu le</w>
cuisi ne</w>
améric ain</w>
travai lle</w>
fon c
el les</w>
ê t</w>
g li
f en
plei n</w>
base ball</w>
t te</w>
d u
m o
be au
trave rs</w>
pl uie</w>
ti en
l' une</w>
in stru
co mm
ar ti
par a
o ù</w>
dé bar
ch er</w>
beau coup</w>
s su
par lant</w>
a près</w>
ten ues</w>
l é
f es
ou se</w>
pi è
eu ses</w>
vêtu s</w>
quel qu'un</w>
pe l
g en
v en
jou er</w>
tr an
s é</w>
f u
bu s</w>
attra per</w>
n u</w>
appar eil</w>
n uit</w>
l' extérieur</w>
jou eurs</w>
cl ô
travaill ant</w>
ray é</w>
p ê
fi gu
f ri
en tr
c es</w>
am i
tien nent</w>
jou et</w>
f au
d' hommes</w>
p es</w>
ouvri ers</w>
m in
ve r</w>
dis cu
cami on</w>
sur f
s e
plan che</w>
é p
m or
habill é</w>
débar deur</w>
pe aux</w>
on g
ba s</w>
ram pe</w>
li vre</w>
f fi
pi er</w>
travaill ent</w>
piè ce</w>
gu eule</w>
en nei
an im
vi ère</w>
son s</w>
roch er</w>
ri vière</w>
po m
or di
in térieur</w>
in g</w>
cu le</w>
re au</w>
p ol
e ill
bleu s</w>
blan ches</w>
peti ts</w>
bl es</w>
b onn
ai e</w>
é cou
viol et</w>
ssu res</w>
spec tat
s tan
s por
musi que</w>
adul tes</w>
e y</w>
d' enfants</w>
b ois
an te</w>
tai re</w>
pro d
po sent</w>
cycli ste</w>
cou rs</w>
br u
è res</w>
quel ques</w>
pa s</w>
lan c
fen être</w>
b on
tor se</w>
swe at</w>
r ts</w>
pier re</w>
ordi nat
b es</w>
s é
po sant</w>
tra î
mai son</w>
m i</w>
et t
dan se</w>
ch aise</w>
al l
v ent</w>
spectat eurs</w>
pu l
p ont</w>
la c</w>
balan ç
b in
utili se</w>
ro s
plu s</w>
ri t</w>
z o
v a
pren ant</w>
e -
cor de</w>
clô ture</w>
chan te</w>
pel ouse</w>
m as
en tour
cti f</w>
y m
p ant</w>
obje ctif</w>
ma chi
re aux</w>
f eu
char i
publi c</w>
pa ti
gil et</w>
com bin
bonn et</w>
asiati ques</w>
ob jet</w>
march es</w>
tr o</w>
n ag
l' objectif</w>
in di
combin ai
tu res</w>
s no
f ête</w>
costu mes</w>
ch é</w>
al i
ol esc
b ei
ai ne</w>
ad olesc
œ u
zo ne</w>
stan d</w>
pa y
n g</w>
n ett
gla ce</w>
balanç oire</w>
sno w
ran donn
p s</w>
n eau</w>
es sa
vag ue</w>
tai ne</w>
t ons</w>
r ée</w>
pol o</w>
o ts</w>
mé tro</w>
mang er</w>
f am
ai s</w>
poin t</w>
n a
mon tre</w>
figu re</w>
ten d
sa cs</w>
chari ot</w>
allong é</w>
trou ve</w>
ti s</w>
regar der</w>
poli ci
f fe
escal ade</w>
ch ant</w>
re cou
pie ds</w>
g nes</w>
cu l
cou leur</w>
sk i
s'ap pr
par lent</w>
p il
n ement</w>
ho ck
fri s
for êt</w>
bâ ton</w>
as tique</w>
ar bres</w>
pr endre</w>
oran ges</w>
machi ne</w>
bri ques</w>
fam ille</w>
f la
chau ssures</w>
b elle</w>
pan car
ordinat eur</w>
j am
f ré
ci r
ci el</w>
ca f
bei ge</w>
pas sent</w>
oi g
gra ffi
d' é
colli ne</w>
co w
tu di
qua i</w>
qu en
og rap
d r
phot ograp
parti ci
long s</w>
j au
fré quen
escal ier</w>
d re</w>
ai sse</w>
vi eux</w>
ver re</w>
tou rn
t -
pul l</w>
m oy
l' intérieur</w>
l er</w>
jau nes</w>
g er</w>
dé o</w>
cu ri
car reaux</w>
can ap
v o
ti re</w>
t h
pen te</w>
pein t</w>
p in
or s</w>
fon taine</w>
cas ques</w>
tal li
qu' ils</w>
on ne</w>
f s</w>
canap é</w>
x i
s si
phot os</w>
k a
ennei gée</w>
combinai son</w>
c ette</w>
t és</w>
sol eill
prom en
mé talli
i mm
en soleill
en ne</w>
d oig
ag es</w>
a vant</w>
v oir</w>
so mm
pla ce</w>
p ot
noi res</w>
caf é</w>
bru ns</w>
br an
au che</w>
v ée</w>
tou s</w>
ti onn
t-shi rts</w>
t eu
ri e</w>
prépar e</w>
para pluie</w>
par mi</w>
hock ey</w>
fau teu
cou r</w>
s ée</w>
r o</w>
pie d</w>
om bre</w>
nu mé
mi té</w>
graffi tis</w>
gen ou
en traî
- ball</w>
v end
sor te</w>
or i
n er</w>
l s</w>
g ent</w>
ensoleill ée</w>
e ille</w>
dé fil
desc en
d ont</w>
d o
bo y</w>
blon d</w>
al ors</w>
él e
vi f</w>
utili sant</w>
travai l</w>
sau t</w>
pro fi
pa pier</w>
e ffe
cou ver
ai ses</w>
s tat
fris be
c e
bleu es</w>
spor t</w>
somm et</w>
r on
pré sen
gil ets</w>
t eurs</w>
re r</w>
pê che</w>
ouvri er</w>
n ant</w>
frisbe e</w>
fr uits</w>
effe c
dan sent</w>
bou che</w>
ar r
t y
t em
musi ci
l oin</w>
h u
g a
fe u</w>
c eau</w>
bask et</w>
bar be</w>
attend ent</w>
ta l</w>
ré par
numé ro</w>
nombr eux</w>
n e
f er
curi té</w>
bo ar
ai rs</w>
adul te</w>
y eux</w>
vêtu es</w>
stat ue</w>
pan neau</w>
genou x</w>
frap per</w>
em br
di ff
bé ton</w>
attend ant</w>
è ge</w>
ç ant</w>
ta s</w>
ta bli
t oit</w>
spec ta
pou sse</w>
pl astique</w>
pi s</w>
pas sant</w>
p ère</w>
nu s</w>
hi ver</w>
for mes</w>
diff ér
cycli stes</w>
bu reau</w>
xi mité</w>
vé hi
v ue</w>
uni forme</w>
swe at
s sent</w>
pro ximité</w>
por tent</w>
plei ne</w>
p ui
descen d</w>
atten d</w>
vol le
pil o
g ym
g ol
d am
con d
bou te
ai ns</w>
tr on
sweat -shi
stru c
man i
m et</w>
li sant</w>
instru ments</w>
gri m
co pe</w>
é ch
t é
r é</w>
pou ss
n age</w>
moy en</w>
m ère</w>
li gne</w>
g g
fo ot</w>
essa yant</w>
dan sant</w>
ci gar
at ta
specta cle</w>
roch ers</w>
pancar te</w>
mon te</w>
mi c
m ê
ju pe</w>
feu illes</w>
es s
dra peau</w>
di t</w>
cl ai
am u
â ge</w>
vé nement</w>
uni formes</w>
si x</w>
s son</w>
s -
mu l
monta gnes</w>
k i
journ al</w>
cl air</w>
bask et
sweat-shi rt</w>
sau tent</w>
maill ots</w>
m er</w>
j ar
d ée</w>
con cer
tri ne</w>
traver se</w>
sé curité</w>
ré uni
pren nent</w>
métalli que</w>
m ant</w>
fréquen tée</w>
défil é</w>
d' âge</w>
ch aises</w>
acc rou
é vénement</w>
ver ts</w>
struc ture</w>
prom ène</w>
pl i
nombr euses</w>
mon tr
mang eant</w>
jar di
gro sse</w>
fonc és</w>
co ll
c ap
vél os</w>
ta pis</w>
sur f</w>
souri ent</w>
sau ter</w>
s' amu
l les</w>
es pa
dor t</w>
des si
concer t</w>
com pé
ai de</w>
ép au
é tudi
ve ment</w>
tat ou
su i
snow boar
sk i</w>
ro déo</w>
rempl i</w>
re pas</w>
lé gu
lan ce</w>
in ter
fauteu il</w>
cl asse</w>
cha peaux</w>
c oin</w>
bi ère</w>
ë l</w>
vi si
pi é
ob ser
nom bre</w>
lè ve</w>
lanc er</w>
b u</w>
équ ili
éle c
éc rit</w>
é tant</w>
voi tures</w>
v age</w>
sen tier</w>
ro ll
pi ers</w>
p re
mi er</w>
j eux</w>
habill ée</w>
d' hiver</w>
compé ti
co mme</w>
c ad
ag i
è me</w>
â teau</w>
pui s</w>
pan ier</w>
no ël</w>
gu es</w>
gn ant</w>
de puis</w>
br une</w>
b ot
v res</w>
to bo
tobo gg
tobogg an</w>
ta tion</w>
san s</w>
ni que</w>
m et
légu mes</w>
lon s</w>
l' équipe</w>
g eant</w>
eu r
en ce</w>
de au</w>
dan s
d' eux</w>
compéti tion</w>
ba r</w>
équili bre</w>
é clai
tabli er</w>
si onn
pl at
p ent</w>
instru ment</w>
gli sse</w>
g é</w>
g auche</w>
d onne</w>
cow -
ch er
pro fes
p ai
l' ar
k in
ju s
g ants</w>
entour é</w>
d al
a yant</w>
a vi
a ch
su s
sa tion</w>
s eau</w>
r ent</w>
qu ar
mul ti
fa ç
dé ser
d é</w>
cigar ette</w>
chan tant</w>
bu vant</w>
blon ds</w>
bar bu</w>
af fi
vi eille</w>
skat eur</w>
pilo te</w>
pay sage</w>
mê me</w>
lu mi
fon d</w>
f al
d'ar bres</w>
cou leurs</w>
af ri
ad ver
voi e</w>
surf eur</w>
s'appr ête</w>
s ses</w>
rou lant</w>
nett oy
mor ceau</w>
mar ti
imm eu
dra peaux</w>
dam e</w>
cou pe</w>
color és</w>
bot tes</w>
bat tent</w>
bal lons</w>
at h
âg ées</w>
véhi cule</w>
v es</w>
tem ps</w>
sem ent</w>
s' é
s cul
scul p
roch euse</w>
pl ong
oi te</w>
o r</w>
long ue</w>
li ng</w>
habill és</w>
gri se</w>
frap pe</w>
en tes</w>
doig t</w>
cô te</w>
c ra
bu t</w>
b ai
arti ste</w>
ami s</w>
ver tes</w>
u r
traver sent</w>
ter ie</w>
tend ue</w>
stru ction</w>
prod uits</w>
pot eau</w>
po si
pl oy
p h
o i</w>
l' arrière</w>
jardi n</w>
fal aise</w>
di tionn
bi en</w>
as te</w>
ta bles</w>
ta bl
qu i
photograp h
om b
m em
la ge</w>
k ing</w>
i r</w>
el s</w>
con struction</w>
bo w
bi kin
afri c
y a
snowboar deur</w>
ros s</w>
ro -
rassembl ent</w>
prépar ant</w>
peti tes</w>
p au
p al
nou ve
ju ste</w>
i ste</w>
eu re</w>
en ti
embr as
bâti ments</w>
boute ille</w>
b er
af ro-
u che</w>
tra ditionn
tom b
ti rant</w>
ro bes</w>
pein ture</w>
mot oc
marti aux</w>
man ge</w>
l ement</w>
fonc é</w>
d a
ér a</w>
éc la
vi trine</w>
vi er</w>
vend eur</w>
v é</w>
rou l
polici er</w>
po s
pe i
par ler</w>
musici ens</w>
fil s</w>
en ou
cour ses</w>
cam éra</w>
ca de</w>
bow ling</w>
ra ge</w>
pou r
p at
o w
multi color
mas que</w>
l' é
es se</w>
cow- boy</w>
con ver
chev aux</w>
c teur</w>
c oi
c entre</w>
al im
éc ra
ser vi
s' él
n n
mat éri
mang ent</w>
li re</w>
g ue</w>
es tre</w>
couver ture</w>
chan tier</w>
cap uche</w>
bou le</w>
b ro
as s
élec tri
traver sant</w>
ta ge</w>
ray ée</w>
prépar ent</w>
pen che</w>
pe u</w>
pa vée</w>
lon gues</w>
in s
gran ds</w>
g é
con tr
all ée</w>
écla bou
éch elle</w>
é tendue</w>
ski eur</w>
ro ses</w>
r et</w>
qu ant</w>
ou verte</w>
li eu</w>
h eur
fil et</w>
espa ce</w>
colli er</w>
cir cu
ag enou
âg és</w>
vi ent</w>
ui sant</w>
t oi
s eu
r en
qu et</w>
pre mier</w>
pe lu
or ch
orch estre</w>
motoc ross</w>
matéri el</w>
man ches</w>
m en
ka ya
immeu ble</w>
i ers</w>
fl ot
effec tu
d' entre</w>
com p
ch ée</w>
cer tai
can ne</w>
c les</w>
bu lles</w>
ai t</w>
a voir</w>
a tion</w>
écra n</w>
ven d</w>
u re</w>
tr am
ri vage</w>
publi ci
profes sionn
pouss ette</w>
pom piers</w>
photograph e</w>
p eu
l o
l am
g on
es te</w>
différ entes</w>
desc endant</w>
bikin i</w>
b ag
avi on</w>
an de</w>
vo le</w>
vag ues</w>
v ou
tran s
te in
s tique</w>
s oi
rou le</w>
rempl ie</w>
r at
poi sson</w>
po sé</w>
pe lle</w>
par king</w>
p on
n é</w>
g âteau</w>
fou l
em ploy
dr oite</w>
discu tent</w>
c â
bat terie</w>
base -ball</w>
au tom
allong ée</w>
adolesc ent</w>
équi pes</w>
v endant</w>
v al</w>
si er</w>
s ombre</w>
ri r</w>
min i
mar at
marat ho
d' attraper</w>
d ant</w>
cou vert</w>
coi ff
c ré
c i</w>
a ff
w a
viol ette</w>
par t</w>
o l</w>
march er</w>
gi r
ess aie</w>
dé cor
d ou
conver sation</w>
cl ow
chau ss
c é
bois sons</w>
ar ds</w>
é tran
é char
viol on</w>
traver ser</w>
terr asse</w>
tau reau</w>
t on
s co
recou verte</w>
pro fon
oi e</w>
oc k
l aisse</w>
j o
gym n
cou cher</w>
che f</w>
ch ent</w>
c en
bri ll
ba se</w>
ati que</w>
équi pe
ti ss
tabl eau</w>
t ue</w>
sur pl
s tra
p â
mani fes
m ée</w>
ill é</w>
eu sement</w>
end r
end or
di re
comp toir</w>
cli ents</w>
cas cade</w>
bou e</w>
anim ée</w>
' est</w>
te aux</w>
pro te
pr es
posi tion</w>
polici ers</w>
pe tte</w>
pau se</w>
ois eau</w>
montr ant</w>
mi r
mari age</w>
h ar
escal ad
cti ons</w>
bois son</w>
bo î
an di
affi che</w>
a te</w>
va te</w>
u m</w>
tai res</w>
su per
sor t</w>
si on</w>
s'él oi
re présen
pré ci
pelu che</w>
pa gne</w>
mari ée</w>
el lement</w>
d ents</w>
cra vate</w>
cor des</w>
con str
color é</w>
ci ment</w>
chau ve</w>
c al
attra pe</w>
ath lè
an s</w>
acc roch
t o</w>
t asse</w>
sta tion</w>
s sons</w>
roll er</w>
rassembl ées</w>
randonn ée</w>
r ai
promen ant</w>
ou ti
obje ts</w>
k ar
jou euse</w>
ins tal
er ci
d ent</w>
ch u
am bu
électri que</w>
tu y
ti r</w>
ti n
sus pen
surf e</w>
si eur</w>
s ei
rou sse</w>
recou vert</w>
por t</w>
n or
mon sieur</w>
mic ros
k i</w>
foul ard</w>
er ie</w>
entr e
dé gui
d'ar t</w>
cui r</w>
cour eurs</w>
cour eur</w>
bar be
ap pu
an tes</w>
ai rie</w>
aff ron
adolesc ents</w>
a s</w>
échar pe</w>
tr ou</w>
ti fs</w>
sou ff
sau ve
s' embras
r ui
qu er</w>
po m</w>
oc cu
mé tal</w>
mir oir</w>
ma qu
jou ets</w>
je tte</w>
in s</w>
gol f</w>
en -
dal es</w>
d' elle</w>
cond uit</w>
c ue</w>
c er</w>
c 'est</w>
barbe cue</w>
b an</w>
anim al</w>
- pom</w>
vol ant</w>
ve stes</w>
tou ri
sk ate</w>
sembl ent</w>
sco ot
s'appr ê
pou ssi
pom -pom</w>
pas sage</w>
par oi</w>
ob sta
mot ard</w>
mem bres</w>
maratho n</w>
coup er</w>
clow n</w>
chemi sier</w>
ca v
c ri
ba t</w>
ap préci
ac cor
a z
él è
écou teurs</w>
é té</w>
volle y</w>
volle y
tu r
suspen du</w>
sta de</w>
sal on</w>
promen ade</w>
pier res</w>
par as
na vi
mé di
li n
en sei
discu tant</w>
cé ré
co le</w>
bi tre</w>
b y</w>
b rou
arr ê
vi n</w>
tai lle</w>
t él
san dales</w>
s' entraî
rem or
ra pi
qu ettes</w>
pr airie</w>
p n
man ège</w>
jus qu'
i ne</w>
gra vi
g e
g al
di ri
di en</w>
cuisi ni
c k</w>
bl ement</w>
appu y
accor dé
épau les</w>
è nent</w>
vi ve</w>
vi ande</w>
tour ne</w>
tou t-
surpl omb
so li
s aire</w>
ru elle</w>
profon de</w>
pou ssant</w>
photograp hi
micros cope</w>
li er</w>
j ong
habill ées</w>
gli se</w>
fou r
endr oit</w>
de aux</w>
cour ts</w>
coup ant</w>
c el
balan ce</w>
b oit</w>
v oy
v a</w>
u s</w>
tu nn
tunn el</w>
souri ante</w>
snow board</w>
seu l</w>
s' affron
quar tier</w>
prote ction</w>
plan tes</w>
p i</w>
jam be</w>
gon fla
fu me</w>
effectu ant</w>
déser t</w>
cou rir</w>
chi n
cha t</w>
c lu
c elle</w>
b re
at oire</w>
an d</w>
accordé on</w>
éc ri
é nor
tuy au</w>
tr o
tou tes</w>
surplomb ant</w>
si gne</w>
représen tant</w>
rempl i
ra quette</w>
r ues</w>
pay s</w>
p y
mou vement</w>
la bor
kaya k</w>
ka ki</w>
indi vi
in spec
il lage</w>
i que</w>
ex am
en te</w>
ch és</w>
cer cle</w>
can o
bl ou
bat te</w>
b arrière</w>
é ro
vi rage</w>
u stra
tél es
tron c</w>
ten d</w>
ss eau</w>
sembl ant</w>
sculp ture</w>
sauve tage</w>
réuni s</w>
remor que</w>
par k</w>
pa p
p éri
onn ette</w>
multicolor e</w>
mon ie</w>
m é</w>
labor atoire</w>
l' ombre</w>
g ers</w>
g ag
entr ée</w>
end ent</w>
donn ant</w>
chin ois</w>
c et</w>
c aisse</w>
bâ tons</w>
bal ustra
bal a
b ad
alim en
accrou pi</w>
ê tes</w>
énor me</w>
z on</w>
x o
téles cope</w>
travaill er</w>
tram poli
trampoli ne</w>
si este</w>
scoot er</w>
rou lent</w>
re pose</w>
ran gée</w>
profi tant</w>
poli ce</w>
pi qu
nag eant</w>
mic ro
kar at
karat é</w>
je tée</w>
j oy
ill ée</w>
h ô
gri ll
g le</w>
fi que</w>
eu e</w>
e illes</w>
céré monie</w>
color ée</w>
boî te</w>
bor dée</w>
basket -ball</w>
étudi ants</w>
épau le</w>
é cha
vêt ement</w>
volley ball</w>
vi de</w>
v endre</w>
sa xo
s eur</w>
rui sseau</w>
ri ant</w>
ra tion</w>
prom ènent</w>
prod uit</w>
pié tons</w>
pi n</w>
partici pant</w>
og g
l' aide</w>
l ave
j ogg
grim pe</w>
gir ls</w>
g nent</w>
fu mant</w>
fr oi
fes ti
escal iers</w>
effec tue</w>
di e</w>
d'ar ts</w>
d' herbe</w>
c on</w>
c ent</w>
bo x
bat teur</w>
balustra de</w>
ati ons</w>
at eur</w>
al lu
ai res</w>
écha fau
é tr
w i
tout- petit</w>
tou che</w>
tiss u</w>
ss é</w>
soli taire</w>
soi rée</w>
sa le</w>
s oit</w>
roul ettes</w>
ri ent</w>
p é</w>
oi si
nettoy ant</w>
nett oie</w>
ne z</w>
na se</w>
mo tifs</w>
m és</w>
m eu
la tion</w>
l' escalade</w>
i d
heur eux</w>
hau ts</w>
gym nase</w>
fe r</w>
f res
entour ée</w>
endor mi</w>
d î
chu te</w>
cha î
cam pagne</w>
c ro
b on</w>
at tein
am i</w>
ali gn
écou te</w>
â ne</w>
voi t</w>
voi ci</w>
u ns</w>
ti f</w>
th ou
thou si
ten ir</w>
ta m
t êtes</w>
se p
sep t</w>
s ty
ré cu
rou x</w>
rou e</w>
ra le</w>
qu é</w>
pro jet</w>
pri n
pr ati
pou belle</w>
pai lle</w>
ori en
ob el
mag az
lumi ères</w>
lumi ère</w>
jou r</w>
gar dien</w>
g obel
f ér
exam in
ex ami
exami ne</w>
escalad ant</w>
ennei gé</w>
en thousi
du s</w>
doig ts</w>
desc endent</w>
des sous</w>
color ées</w>
co té</w>
chemi ses</w>
cad re</w>
c la
bro sse</w>
bon dée</w>
bo l</w>
bar re</w>
afro- américain</w>
ach è
équipe ment</w>
échafau d
é chi
ère ment</w>
y or
y er</w>
v éri
utili sent</w>
ti cule</w>
t ex
sur ve
str i
sol da
solda ts</w>
si ège</w>
pl on
pen ché</w>
pei gnant</w>
pas sa
partici pent</w>
pantal ons</w>
pa g
o s
o le</w>
mon tant</w>
mo ment</w>
mili taire</w>
mi de</w>
met tant</w>
jam bes</w>
gymn aste</w>
gonfla ble</w>
gli ssant</w>
gar e</w>
faç ade</w>
e mm
du res</w>
do cu
co u</w>
certai ns</w>
ce in
bl o
bal aie</w>
as sant</w>
al ier</w>
a br
écou tant</w>
é glise</w>
u res</w>
ty pe</w>
tr om
te -
tan g</w>
t t</w>
sho rts</w>
s'éloi gne</w>
ré es</w>
re tourn
randonn eurs</w>
randonn eur</w>
pom pier</w>
po t</w>
piqu e-
pe ll
p è
obsta cle</w>
mon tent</w>
march andi
man teaux</w>
m oi
lanc eur</w>
lan çant</w>
l' enfant</w>
l' accordéon</w>
jo li
hau tes</w>
hau te</w>
guitar iste</w>
gri l</w>
g ou
fres que</w>
figu res</w>
faç on</w>
dis sant</w>
di vers</w>
d'ar bre</w>
d' an
câ li
cor ps</w>
com bat</w>
ci en</w>
chev au
cano ë</w>
bon dé</w>
bat tant</w>
bal con</w>
b oi
au -
ap pl
améric ains</w>
ag ent</w>
adver se</w>
accrou pi
ac ro
a éro
é cos
yor k</w>
wa y</w>
va che</w>
trav aux</w>
traditionn els</w>
ti vement</w>
ta bou
t ball</w>
sur face</w>
super marché</w>
souri re</w>
sa vou
répar er</w>
ré fl
ru ban</w>
rassembl és</w>
ram bar
qu eue</w>
pro che</w>
pri se</w>
pri s</w>
pla t</w>
parti e</w>
par ta
par cours</w>
p ée</w>
p uie</w>
outi ls</w>
ol s</w>
ois eaux</w>
n ée</w>
n eur</w>
mon de</w>
mar teau</w>
m an</w>
lin ge</w>
li vres</w>
i c
dé pla
cou v
cou ché</w>
comm erci
bag ages</w>
appl au
anim aux</w>
améric aine</w>
al pin
a ble</w>
ô le</w>
écos s
voi le</w>
v eur</w>
v an
télé pho
tou te</w>
ten tent</w>
tatou age</w>
t ement</w>
sor ti
saxo phone</w>
s és</w>
s il
s ar
ru g
profi te</w>
pro je
plat eau</w>
pique- nique</w>
or dures</w>
o ffi
mou sta
li ère</w>
le vant</w>
lan gue</w>
in té
id enti
festi val</w>
di ver
d' être</w>
cui t</w>
cow boy</w>
cou l
circu lation</w>
chan tent</w>
ca le</w>
bran dit</w>
bl ouse</w>
b ui
b ati
athlè te</w>
ar gen
ai si
ach et
él an
éclabou ssures</w>
é tang</w>
è que</w>
w ag
vo l</w>
ur bain</w>
ui es</w>
téri eure</w>
trot tin
tra c
tr oisi
troisi ème</w>
toi le</w>
ti s
ta pe</w>
ser elle</w>
sal to</w>
sal o
s'ap puie</w>
s t
s eule</w>
réfl échi
qua d</w>
qu' elles</w>
publi que</w>
pr êt</w>
pl uies</w>
pié ton</w>
pi an
pas serelle</w>
pas ser</w>
paras ol</w>
para pluies</w>
ouv re</w>
obser ve</w>
mon ticule</w>
mili taires</w>
mag ni
m e
jogg ing</w>
j ap
in g
im age</w>
g rat
frap pant</w>
f ar
f an
dé jeu
du re</w>
dire ction</w>
comm ent</w>
ci er</w>
cher che</w>
che z</w>
cav alier</w>
c al</w>
ban dan
at or</w>
arr êt</w>
ai ss
ad mi
œu r</w>
é car
vi déo</w>
v tt</w>
ui sent</w>
tr é
tr ouv
touri stes</w>
tom be</w>
ti rer</w>
tam bou
t- être</w>
sui t</w>
sol d
sold at</w>
ser t</w>
salo pette</w>
s'amu sent</w>
roll ers</w>
ro che</w>
py jam
peu t-être</w>
pat tes</w>
pa vé</w>
p ois</w>
ou fla
oufla ge</w>
or eilles</w>
n eaux</w>
musici en</w>
mot os</w>
m élan
lé g
lu ge</w>
g o
g ant</w>
f ran
f ra
f lan
dî ner</w>
dé co
di ns</w>
con fér
chev auche</w>
chan teur</w>
car ton</w>
cam ouflage</w>
ca deau</w>
bala i</w>
b assi
ambu lant</w>
élè ves</w>
z z
y e</w>
ver res</w>
tra cteur</w>
ten tant</w>
tal ons</w>
t esse</w>
so f
sof tball</w>
servi ette</w>
s'affron tent</w>
s' est</w>
ri er</w>
re ce
ray ures</w>
rambar de</w>
pyjam a</w>
pian o</w>
p ing</w>
p ain</w>
ordinat eurs</w>
met tre</w>
l' en
l ar
ju pes</w>
joy eusement</w>
hu mide</w>
fonc ée</w>
fla que</w>
dé tend
différ ents</w>
dan ser</w>
cu les</w>
cr eu
coul oir</w>
cou verte</w>
cham bre</w>
ch eur</w>
bl oc
b oire</w>
atten tivement</w>
attein dre</w>
ar gent</w>
ar bitre</w>
alimen taire</w>
ai ent</w>
éclai rée</w>
visi on</w>
vi sa
trouv ent</w>
trans portant</w>
ti rent</w>
ter min
ten u</w>
tabou ret</w>
surf ant</w>
ski s</w>
s'amu sant</w>
rug by</w>
rassembl ement</w>
ra deau</w>
qu ent</w>
pour ch
po di
podi um</w>
plat e-
plate- forme</w>
pi le</w>
para chute</w>
pancar tes</w>
p le</w>
ock s</w>
nu ag
mu rs</w>
mari é</w>
lu min
le v
l' appareil</w>
foot bal
footbal leurs</w>
f é
f lu
f in
ex position</w>
escal ator</w>
employ és</w>
embr asse</w>
déser te</w>
dor mant</w>
desc endre</w>
de ment</w>
dans euse</w>
d a</w>
cô tés</w>
cond uisant</w>
commerci al</w>
cla vier</w>
chauss ettes</w>
cha c
can i
boi vent</w>
bas se</w>
bandan a</w>
b m
assi ette</w>
arti cles</w>
ar ts</w>
all em
acro bati
a k
' s</w>
z e</w>
ym pi
vi ves</w>
té ti
trottin ette</w>
t oire</w>
ssi on</w>
ss er</w>
s'apprê tant</w>
publici té</w>
professionn elle</w>
pro t
poussi ère</w>
poi gn
pi ge
ne w</w>
nat ation</w>
mu s
mai s</w>
le ver</w>
her bes</w>
h uit</w>
h ou
g ami
gami n</w>
fréquen té</w>
for m
foot ball
football eur</w>
fi le</w>
feu ille</w>
fer més</w>
en vi
cou stique</w>
cou dre</w>
confér ence</w>
con trac
com pl
clô tu
clu b</w>
chevau chant</w>
chauss ée</w>
cami onnette</w>
c entr
bri que</w>
bal les</w>
bal ade</w>
b eau</w>
atta ché</w>
af fai
ad o
ac com
a coustique</w>
è che</w>
â tre</w>
y s</w>
visa ges</w>
ver se</w>
ver d
ur b
ta le</w>
si tu
sal u
sa pin</w>
répar e</w>
récu pé
ré ci
res semble</w>
re bord</w>
profi tent</w>
poin te</w>
poi ssons</w>
per cu
per che</w>
partici pe</w>
omb re
oi se</w>
mon ter</w>
mari ne</w>
lè vent</w>
lu t
l ou
joli e</w>
jap on
gran des</w>
gra dins</w>
gla ces</w>
gar age</w>
fr ont</w>
fi n</w>
f oin</w>
discu ter</w>
d' ordinateur</w>
d' en</w>
d' attra
cr ois
co équi
chaî ne</w>
certai nes</w>
car tes</w>
ca bi
c eaux</w>
bé ret</w>
bui ssons</w>
brill ant</w>
blou son</w>
bloc s</w>
basket teur</w>
aéro port</w>
ar ène</w>
ag ri
ac tion</w>
a éri
û te</w>
éclai ré</w>
échafaud age</w>
é cu
verd oy
ve au</w>
v ali
tomb er</w>
ti ère</w>
ti ré</w>
ti ques</w>
ti ons</w>
ti ng</w>
th é
t aill
su re</w>
sta tionn
ssu re</w>
sou lève</w>
s eaux</w>
ri re</w>
re li
re ad
read l
readl ocks</w>
ray on</w>
ra me</w>
qu el</w>
pos és</w>
por te-
ori gi
ol ympi
o p
nettoy er</w>
n i</w>
n au
multicolor es</w>
mou illé</w>
marchandi ses</w>
manifes tation</w>
l' avant</w>
ki os
j ock
indivi dus</w>
ill on</w>
identi ques</w>
i nes</w>
ha bi
h al
gobel et</w>
flu o</w>
enthousi as
employ é</w>
de -
dans eurs</w>
d'é té</w>
d res
d readlocks</w>
cho ses</w>
cas quettes</w>
c ée</w>
bran dissant</w>
boute illes</w>
bi jou
ber ger</w>
bat eaux</w>
ban cs</w>
autom ne</w>
au to
au di
at e
appuy é</w>
allong és</w>
alim ents</w>
ai dant</w>
afric ains</w>
a van
étran ger</w>
è ges</w>
wag on</w>
vou s</w>
vi tesse</w>
utili ser</w>
ui re</w>
travaill eurs</w>
tou cher</w>
ti ve</w>
tai l</w>
sus p
ss ée</w>
sou s-
si èges</w>
réci pi
res semblant</w>
regar d</w>
publici taire</w>
pr ê
pou tre</w>
por tr
po sée</w>
pn eu
plan ches</w>
pla fond</w>
pl eure</w>
passa gers</w>
ou vert</w>
mé de
mot ards</w>
mi r</w>
magni fique</w>
l et</w>
kios que</w>
jusqu' à</w>
je ans</w>
indi enne</w>
indi en</w>
in cen
incen die</w>
i s</w>
i le</w>
ho o
ga zon</w>
fé mini
fra î
fauteu ils</w>
dor mir</w>
dis cours</w>
di stri
dans euses</w>
d'attra ctions</w>
d' adultes</w>
d en
cô nes</w>
câli n</w>
cuisi nant</w>
cor n
cir cuit</w>
che fs</w>
chau ssure</w>
chac un</w>
car te</w>
bm x</w>
ban der
at ter
an ti
an ce</w>
alpin iste</w>
allem and</w>
ai der</w>
affai res</w>
adver saire</w>
acc roche</w>
élé ph
ç onn
véri fi
véhi cules</w>
vé téti
ven ant</w>
v aste</w>
urb aine</w>
te l</w>
tan ts</w>
t i</w>
t euse</w>
t ch
susp end
su p
sor tant</w>
sil hou
se ction</w>
san d
sand wi
s'embras sent</w>
s' occu
s tor
s om
s mas
récupé rer</w>
ro ck</w>
re tte</w>
re -
r és</w>
prê ts</w>
prépar er</w>
por tables</w>
po ser</w>
pla que</w>
pl es</w>
pi rat
pati noire</w>
pas s
pa d
ot h
ori ent</w>
or eille</w>
o pé
nag ent</w>
n ais</w>
métalli ques</w>
montr ent</w>
mi ère</w>
magaz ine</w>
m â
m ati
m am
lég èrement</w>
lé v
l'ar gent</w>
l' entrée</w>
l oc
ju m
jong le</w>
ill és</w>
har nais</w>
gri ma
g s</w>
fr ais</w>
for es
flot tant</w>
f leur</w>
ex pl
entraî nement</w>
ensei gne</w>
en gag
déjeu ner</w>
dé contrac
du r</w>
dr oit</w>
diri ge</w>
d'ar ti
d' origi
cuisini er</w>
cr oi
contr e
comm ence</w>
combinai sons</w>
chan ter</w>
ca ge</w>
ca ban
c ai
basket ball</w>
b am
at t
arr ête</w>
agi tant</w>
achet er</w>
œu vre</w>
œu fs</w>
ép ée</w>
vététi ste</w>
viol on
vi c
ve lo
velo p
v aiss
vaiss elle</w>
télépho nique</w>
télé vision</w>
trom pette</w>
tr u
tr on</w>
tr ei
tambou r</w>
t ées</w>
surve ill
si ne</w>
si l</w>
s' en
s' arrête</w>
s' arrê
s aisi
re posent</w>
rapi dement</w>
qu oise</w>
pâ te</w>
pro té
poussi ér
pos ées</w>
por tes</w>
pn eu</w>
pein dre</w>
pati n
parti ellement</w>
par ents</w>
pap a</w>
pal et</w>
pai x</w>
p és</w>
oth èque</w>
oi ent</w>
obser vent</w>
ob s
nouve au-
ni ère</w>
na val</w>
n é
n gle</w>
n ac
mu sée</w>
mot eur</w>
mm ent</w>
mem bre</w>
m ob
l' em
l et
l ass
k il
k e
ju ngle</w>
im posant</w>
im pli
i um</w>
heur euse</w>
her b
h é
grou pes</w>
grim pant</w>
gra vier</w>
g es
froi d</w>
fil ets</w>
fai te</w>
eu ro
entraî neur</w>
en voie</w>
en nes</w>
déco r</w>
dé fen
dor é</w>
docu ments</w>
dis sent</w>
d'origi ne</w>
d' elles</w>
cô ne</w>
cr ête</w>
coll e
co lon
che tant</w>
cer f
car tons</w>
car re
bor dé</w>
bois é</w>
bli othèque</w>
bi bliothèque</w>
bat tre</w>
ball er
autom atique</w>
appréci ant</w>
align és</w>
a juste</w>
a chetant</w>
étran ge</w>
é ta
é pou
x i</w>
vi tre</w>
ver saire</w>
tu be</w>
tram way</w>
tor ses</w>
tom bé</w>
ti tu
ta xi</w>
souff le</w>
sorti e</w>
ser rant</w>
sci enti
s'é trei
s'apprê tent</w>
s y
s ter</w>
s col
récipi ent</w>
pê cher</w>
professionn el</w>
pou ce</w>
poi trine</w>
plong eant</w>
plong e
plan cher</w>
pin s</w>
pi tal</w>
pan neaux</w>
pa gn
or eill
opé ration</w>
ong s</w>
offi ci
ni versaire</w>
nau tique</w>
mousta che</w>
micro phone</w>
maqu illage</w>
mani pu
mam an</w>
mai sons</w>
m a</w>
li ers</w>
lass o</w>
lar ge</w>
lam pe</w>
la vant</w>
l l</w>
journ aux</w>
inter section</w>
instal l
in form
i si
hô pital</w>
hu la</w>
hoo p</w>
ho ri
gé ant</w>
grima ce</w>
grill er</w>
g y
g an
fi x
fai blement</w>
f oire</w>
et é</w>
esc ri
entr er</w>
en velop
en tou
dé place</w>
distri bu
d' amis</w>
d él
d i</w>
cri ck
crick et</w>
comm en
comm an
coiff ure</w>
chan teuse</w>
chan son</w>
cha que</w>
car naval</w>
car esse</w>
caban e</w>
c œur</w>
bran che</w>
bou euse</w>
bill ard</w>
bijou x</w>
bassi n</w>
b ac
athlè tes</w>
ate lier</w>
ar me</w>
al es</w>
agenou illée</w>
afro- américaine</w>
afric aine</w>
accroupi e</w>
accroch é</w>
ac ci
a c</w>
ï s</w>
étudi ant</w>
équipe ments</w>
é co
w al
vic toire</w>
ven te</w>
uni ver
tri cy
to ff
tatou ages</w>
tai nes</w>
t ongs</w>
t gol
tgol fi
se cou
sandwi ch</w>
s'amu se</w>
s ées</w>
s i</w>
rou es</w>
roch eux</w>
reli gi
re ç
re posant</w>
ran g</w>
ra se</w>
r gi
pê cheur</w>
por ter</w>
poi l</w>
plon ge</w>
pi zz
pell et
pat au
par tout</w>
pap illon</w>
pan iers</w>
pal mi
palmi ers</w>
p aire</w>
ou rs</w>
ombre lle</w>
nouveau- né</w>
nou s</w>
nac elle</w>
mon tgolfi
micro s</w>
mi x
li sent</w>
lev és</w>
le vé</w>
lam pad
l' équilibre</w>
l' as
k er</w>
k e</w>
in fi
infi r
in cli
imm en
hi p
gymn astique</w>
gi es</w>
g r
g no
fu sil</w>
for t</w>
fo o
flan c</w>
fl â
f ro
f il</w>
f aux</w>
ex écu
ex péri
es sen
en gi
du cteur</w>
dis pu
dessi n</w>
de dans</w>
d une</w>
cro sse</w>
cr euse</w>
con ducteur</w>
cl és</w>
chi ot</w>
chau de</w>
ce p
cai sses</w>
cabi ne</w>
brou ette</w>
bre t
bra sure</w>
bois ée</w>
blon des</w>
bar res</w>
b ons</w>
aéri enne</w>
attra pant</w>
atta chés</w>
an cien</w>
all er</w>
ai l
afric ain</w>
ado ssé</w>
ô t</w>
élec tron
écri vant</w>
écou tent</w>
écoss aise</w>
vol ent</w>
voi es</w>
vend eurs</w>
v illage</w>
v entre</w>
univer si
u sine</w>
traî neau</w>
traditionn el</w>
to ges</w>
to ge</w>
ti ll
thé âtre</w>
tch ou
tchou c</w>
t â
sty le</w>
ski eurs</w>
ser re</w>
scol aire</w>
s te
s cule</w>
répar ant</w>
rece veur</w>
qu ille</w>
pu scule</w>
pot eaux</w>
poi ds</w>
pige ons</w>
per mé
pati o</w>
par quet</w>
pa ga
outi l</w>
ou tchouc</w>
oc y
nourri sson</w>
nn eur</w>
nett oient</w>
n '
mé tier</w>
mon ocy
mo der
moder ne</w>
mat el
mar bre</w>
man che</w>
ma ïs</w>
li qui
lave rie</w>
l'em brasure</w>
j e</w>
j ail
inter agi
im pri
im permé
ho nneur</w>
hau teur</w>
gir l</w>
g rap
g noire</w>
g ement</w>
fu mée</w>
fou r</w>
for aine</w>
fon cti
fl ûte</w>
fl eu
far e</w>
fan fare</w>
examin ant</w>
et h
en t
em u
dél abr
dégui sés</w>
décontrac tée</w>
der by</w>
de l
dan ce</w>
dam es</w>
d res</w>
d on
d eurs</w>
d en</w>
cu ill
cré puscule</w>
cr ème</w>
cr aie</w>
cou che</w>
corn emu
contr ôle</w>
clôtu rée</w>
circu lant</w>
ci n</w>
ch âteau</w>
can ard</w>
cami ons</w>
cam p</w>
ca outchouc</w>
c at
br é</w>
bou gies</w>
bonn ets</w>
bl es
bander ole</w>
ban de</w>
bai gnoire</w>
bag u
b enne</w>
at ure</w>
as ses</w>
arti stique</w>
arri ères</w>
arri vée</w>
allong ées</w>
agenou illé</w>
achè tent</w>
abr i</w>
a le</w>
électron ique</w>
écar tés</w>
é toff
vol er</w>
viol ets</w>
vali se</w>
tu s</w>
ton d
ti rée</w>
ti en</w>
ten tes</w>
t u</w>
st ol
ss i</w>
spor tif</w>
silhou ette</w>
si n
sci e</w>
san te</w>
san s-
s'éloi gnant</w>
s'entraî nant</w>
s'embras sant</w>
s'arrê tent</w>
s' accroche</w>
s ton</w>
s prin
réuni ssent</w>
ré gi
ré col
ru rgi
ro sage</w>
re fl
ram assant</w>
qu ement</w>
prod uisent</w>
prod uisant</w>
pro ba
proba blement</w>
prati quent</w>
pou pée</w>
portr ait</w>
plon gée</w>
plan te</w>
pl eu
pi stol
pen chée</w>
pass ants</w>
pag aie</w>
p ées</w>
p re</w>
méde cin</w>
monocy cle</w>
mar quer</w>
man ne
machi nes</w>
lè vres</w>
loc al</w>
liqui de</w>
lave r</w>
lampad aire</w>
l'en vers</w>
l'ar bitre</w>
l o</w>
ki te
k s</w>
jock ey</w>
j o</w>
inté res
inspec te</w>
indivi du</w>
indi ens</w>
immen se</w>
ho r
hal l</w>
gravi ssant</w>
grap hi
gar ni</w>
g este</w>
fémini n</w>
froi de</w>
flot te</w>
f ans</w>
ex térieure</w>
ex erci
escri me</w>
escalad ent</w>
engi n</w>
en- ciel</w>
en g
en cou
e y
e ils</w>
détend ent</w>
décor é</w>
dé coupe</w>
donn er</w>
discu te</w>
dessi nant</w>
d'é tudi
d' honneur</w>
d' al
d ri
d om
cu r
creu sant</w>
cr âne</w>
couv re-
chi rurgi
chem in
chau d</w>
cer ceau</w>
cein ture</w>
c rie</w>
c -
c- en-ciel</w>
bre ak
bran ches</w>
br on
bou tique</w>
bon bons</w>
bas -
ban deau</w>
bad au
badau ds</w>
b és</w>
asi e</w>
as sent</w>
applau dissent</w>
appar eils</w>
anim é</w>
ai n
agi te</w>
ag ents</w>
achè te</w>
ac ti
a der</w>
œu vres</w>
œ il</w>
ê tres</w>
éléph ant</w>
é ven
é tal
é gal
égal ement</w>
vi tés</w>
uni que</w>
u ment</w>
tudi o</w>
tu ellement</w>
tricy cle</w>
tri co
tomb ant</w>
te ch
sy n
so ci
smas h
sk ie</w>
si m
ser v
scienti fique</w>
savou re</w>
sans- abri</w>
s tudio</w>
régi on</w>
ré pè
ru sses</w>
ru re</w>
rou ler</w>
retourn ant</w>
ren ver
rapi des</w>
ra quettes</w>
ra f
qui t
qui n</w>
présen tation</w>
proté ger</w>
profes seur</w>
pro ch
pneu s</w>
plu mes</w>
pirat eur</w>
per c
pen chant</w>
pe l</w>
pati n</w>
parta gent</w>
parta geant</w>
p te</w>
olympi ques</w>
nuag eux</w>
navi gu
nag eurs</w>
nag er</w>
n œu
mu ni
m è
m o</w>
le quel</w>
l' arrière-plan</w>
japon ais</w>
impermé able</w>
i stes</w>
hori zon</w>
gu é</w>
gri lle</w>
gla cée</w>
ges tes</w>
gar és</w>
gar é</w>
g ère</w>
g rue</w>
fris és</w>
fores tier</w>
fer rée</w>
fen êtres</w>
ex ci
entour és</w>
e in
dé garni</w>
diver ses</w>
d o</w>
câ bles</w>
cuisini ère</w>
cui re</w>
coéqui pier</w>
cou teau</w>
constr uisant</w>
con tenant</w>
com posé</w>
colle ction</w>
coll è
coll ants</w>
co c
cl aire</w>
ci trou
ci pa
cho rale</w>
chau ff
char rette</w>
ch â
ch ette</w>
cerf -
cerf- volant</w>
cav ali
bu lle</w>
bou ée</w>
bou quet</w>
bou eux</w>
bor deaux</w>
bo m
be ac
beac h</w>
bask ets</w>
bas- côté</w>
ba c</w>
au ssi</w>
atten te</w>
at es</w>
arti san
arri ve</w>
argen té</w>
ar i
ar c-en-ciel</w>
ap pe</w>
an ces</w>
am ie</w>
accom pagn
a b
2 0
1 2</w>
écri re</w>
é cole</w>
z ar
ve ments</w>
u nes</w>
tur ban</w>
tron çonn
tro pi
tran sport</w>
tr es
tourn er</w>
tau corps</w>
tatou é</w>
t tor
sur éle
sou r
si gn
ser vant</w>
sau vage</w>
sa n</w>
s éri
s cou
réuni on</w>
ri ng</w>
reç oit</w>
rai ls</w>
pé dal
pâ le</w>
pre mière</w>
pot erie</w>
pl ô
pl eurs</w>
perc euse</w>
per ru
per ron</w>
per for
perfor man
performan ce</w>
pein ts</w>
pas t
parti r</w>
paras ols</w>
p ha
orien tale</w>
on ce</w>
o les</w>
ni ques</w>
nat ure</w>
mou vements</w>
mou tons</w>
mou ton</w>
mou sse</w>
mor ceaux</w>
mon ument</w>
mi -
met tent</w>
manifes tants</w>
man u
magaz ines</w>
mag as
magas ins</w>
m ex
m c
m au
m al
lon dres</w>
li ve</w>
la ve</w>
la mm
l' horizon</w>
l es
kil t</w>
jus taucorps</w>
je tant</w>
in térieure</w>
in ten
i s
i f
i es</w>
hô tel</w>
hock ey
h an
h am
gy m</w>
gro sses</w>
gol den</w>
gi le</w>
gar ée</w>
ga z
g és</w>
ff re</w>
fa bri
ex pres
ex e</w>
ett eurs</w>
essen ti
escal ader</w>
en com
dé part</w>
dé bri
débri s</w>
dispu tent</w>
discu ssion</w>
diri geant</w>
di sant</w>
di plô
dessi ne</w>
d'an niversaire</w>
d' entraînement</w>
d' atteindre</w>
cul aire</w>
cuill ère</w>
croi x</w>
cou vre</w>
cou ples</w>
cornemu se</w>
commen cer</w>
comm er
cli ent</w>
cipa l</w>
cho isi
chi ots</w>
chi noi
cher chant</w>
che ts</w>
char geant</w>
ch è
ch et</w>
cam ping</w>
cad die</w>
c é</w>
bé bés</w>
brill ante</w>
bret elles</w>
blou ses</w>
bi zar
bask etteurs</w>
bar il</w>
ban an
bac k</w>
b roch
b ains</w>
assi ettes</w>
as sé</w>
arti stes</w>
appréci ent</w>
ai nes</w>
ai dent</w>
acrobati e</w>
a bru
étr oite</w>
éclabou ssant</w>
é pi
y og
yog a</w>
y ent</w>
vi e</w>
v u</w>
ui te</w>
ui -
ty pes</w>
tronçonn euse</w>
tr em
tr ai
tond euse</w>
tomb ée</w>
ti é</w>
ti mes</w>
tex as</w>
t onn
t ain</w>
surve ille</w>
sur poids</w>
su l
sty lo</w>
sous- vêtements</w>
sou de</w>
som bres</w>
soci été</w>
sal es</w>
s'étrei gnent</w>
s'entraî nent</w>
s'entraî ne</w>
s'ap proche</w>
s' ex
s' accroupi
s mo
ré di
ri ers</w>
re ts</w>
re tourne</w>
re bon
ray és</w>
ran s</w>
ram asse</w>
qu ée</w>
qu illes</w>
pul véri
pu pi
pu lent</w>
présen te</w>
pres que</w>
por che</w>
poign ée</w>
po ê
po mmes</w>
po mme</w>
plonge oir</w>
piè ces</w>
pi que</w>
ph al
peu t</w>
patin eurs</w>
par al
par ade</w>
pa tient</w>
pa piers</w>
pa ce</w>
orien tal</w>
or gan
obsta cles</w>
nu ages</w>
nouve ll
nouvell ement</w>
nag eur</w>
n ées</w>
n on</w>
mélan ge</w>
mu se
monta gn
moi tié</w>
matel as</w>
manne quin</w>
ma tion</w>
m er
li gnes</w>
let tres</w>
lan ter
l'é cole</w>
l'ar mée</w>
l' allée</w>
l é</w>
l ot</w>
l aine</w>
jusqu' aux</w>
jum elles</w>
ju s</w>
jou é</w>
jo h
jail li
im ages</w>
ic a</w>
hé li
hockey eurs</w>
herb eux</w>
gu er
gravi t</w>
go û
gli sser</w>
gar ées</w>
gal erie</w>
g re</w>
g or
g ie</w>
g -
fr ère</w>
four rure</w>
for mation</w>
fi ques</w>
ex posé</w>
essa yer</w>
envi ron</w>
envi r
entre tien</w>
engag és</w>
enf lamm
encou ra
emm ent</w>
e- ville</w>
dé s</w>
dé coll
dor ée</w>
dor ment</w>
docu ment</w>
dis que</w>
de man
d'étudi ants</w>
d' en
d' affaires</w>
d j</w>
cy cl
crois és</w>
cr as
couver tures</w>
cour te</w>
coup s</w>
cor pulent</w>
contre bas</w>
cl é</w>
ci ble</w>
centr e-ville</w>
carre lage</w>
car es
can ot</w>
cam é
ca r</w>
ca pe</w>
bu reaux</w>
break dance</w>
br û
bou les</w>
bou clés</w>
bor ne</w>
bor dure</w>
bom be</w>
bo ys</w>
ban jo</w>
bal ayant</w>
bai ssée</w>
bagu ettes</w>
bad ge</w>
b elles</w>
atta chée</w>
ath lé
as cen
ar ros
ap pro
am a</w>
allu re</w>
ai lle</w>
acci dent</w>
abru pte</w>
a qu
a jus
- co
étudi e</w>
écoss ais</w>
éclai rage</w>
é toile</w>
è le</w>
x y
voy ag
voi lier</w>
visi ble</w>
violon celle</w>
viol ettes</w>
vi en
v ar
v ac
tur quoise</w>
tri ce</w>
traditionn elle</w>
tourn é</w>
tourn oi</w>
tiss er</w>
ti ssant</w>
th é</w>
th e</w>
tend ant</w>
ten du</w>
tal es</w>
ta ch
t ère</w>
séri e</w>
suspend ue</w>
sor tir</w>
sim il
sau té</w>
saisi t</w>
sa v
s'é brou
s'occu pe</w>
s'accroupi t</w>
s' agenou
réfléchi ss
ré graphi
ré cep
ri ve</w>
res te</w>
ren if
rempli s</w>
re poser</w>
re ment</w>
re gi
ray ons</w>
ras semble</w>
ram ant</w>
raf ting</w>
ra ment</w>
pê chant</w>
prati quant</w>
poussiér eux</w>
pouss e-
pousse- pousse</w>
pour suit</w>
po ste</w>
plu part</w>
plong eur</w>
pli ante</w>
pla ts</w>
pla qué</w>
pha se</w>
person n
pei gnent</w>
pa quet</w>
ou r
onn ement</w>
obser vant</w>
nuag euse</w>
nouve au</w>
nombr euse</w>
ni e</w>
navi gue</w>
médi é
muni cipal</w>
moy en-
mor d</w>
montgolfi ère</w>
mi s</w>
mi que</w>
meu te</w>
meu bles</w>
m es
lév riers</w>
lanc é</w>
l'é cu
l'écu me</w>
l aire</w>
l ai
jou euses</w>
jong lant</w>
je c
inté gra
instal lant</w>
indi ennes</w>
impri mé</w>
immeu bles</w>
im pres
il lumin
hau t-
ha che</w>
h e
h aie</w>
gé ante</w>
grim ac
grimac es</w>
gri ll</w>
gobel ets</w>
g ées</w>
g erie</w>
g am
fri andi
four g
fleu rie</w>
fil me</w>
f ati
expl or
ex tré
essenti ellement</w>
espa gno
es su
envelop pé</w>
enthousias tes</w>
enthousias me</w>
enthousi aste</w>
ent ass
em pil
e ver</w>
dépla çant</w>
dépla cent</w>
dé tend</w>
dé ploy
dé couper</w>
dé chets</w>
don al
do g</w>
dire ctions</w>
de m
d'ar rosage</w>
d' escalade</w>
cu re</w>
cu li
cr ée</w>
cou ssi
cor pul
constr uire</w>
con centr
colon nes</w>
co ol</w>
cl assi
cir cule</w>
cho régraphi
che cs</w>
che -
char gement</w>
cham eaux</w>
ch u</w>
cer ie</w>
cavali ers</w>
cas ser
ca tion</w>
c élé
c élè
c rayon</w>
c au
bu ff
bou r
bon ne</w>
be aux</w>
baller ine</w>
b ols</w>
b arrières</w>
atten tion</w>
as per
arti fi
arrière- cour</w>
ap prend</w>
align ées</w>
ali sation</w>
al lant</w>
ai les</w>
adolesc ente</w>
a pr
a cier</w>
20 12</w>
œu f</w>
étr ein
étoff e</w>
éri que</w>
épi cerie</w>
ép ais</w>
écou ter</w>
éco liers</w>
échafaud ages</w>
éch asses</w>
éc rans</w>
é vier</w>
é ti
é chan
ç on</w>
â teaux</w>
wa ï
voy age</w>
vien nent</w>
vi te</w>
vend ent</w>
ven ir</w>
vac ances</w>
v us</w>
v ont</w>
v al
ur gen
u i</w>
tri ste</w>
tri ever</w>
travaill eur</w>
tran quille</w>
tou chant</w>
tor ium</w>
ton d</w>
to p</w>
ti sse</w>
ter s</w>
ten dus</w>
tai t</w>
ta pant</w>
t y</w>
t tes</w>
su b
spor tive</w>
situ é</w>
sign alisation</w>
si ro
seu lement</w>
secou e</w>
scou ts</w>
sar celle</w>
s'en la
s'affron tant</w>
s pé
spé ci
s pi
s li
réuni es</w>
ron de</w>
restau ration</w>
rempli t</w>
religi euse</w>
refl et</w>
re triever</w>
re grou
rap pel</w>
rai l</w>
ra l</w>
quar ter
qu eur</w>
péri ll
périll eux</w>
pupi tre</w>
pr él
pou let</w>
pon ton</w>
poin tant</w>
po che</w>
pl aisi
plaisi r</w>
pistol et</w>
pin g-
pilo tes</w>
phal te</w>
per du</w>
pell ette</w>
pein te</w>
pei g
pati neur</w>
paral lè
p tère</w>
p ili
ouv rant</w>
organ i
or n
ol i</w>
oi n
obs curité</w>
nœu d</w>
nouve lle</w>
navi re</w>
moyen- orient</w>
moi ns</w>
min ce</w>
mi ères</w>
mi te</w>
mi ne</w>
mex ic
men u</w>
mc donal
mas culi
manipu le</w>
m al</w>
lu x
l ée</w>
l ette</w>
kite surf</w>
joh n</w>
je e
j oie</w>
inspec tent</w>
i sée</w>
i en</w>
i ci</w>
héli co
hélico ptère</w>
hi s
habi ts</w>
ha waï
grat te</w>
graffi ti</w>
gn on</w>
gen ou</w>
gaz onn
gag ner</w>
g ères</w>
g o</w>
g er
foo d</w>
foncti onn
fl é</w>
fl ou
fl eur
fleur i</w>
fin ir</w>
fil m</w>
fi ce</w>
fer me</w>
f ois</w>
f as
f ac
expéri ence</w>
examin ent</w>
essa ye</w>
ess aient</w>
es que</w>
envir onnement</w>
entre prise</w>
ensei gn
en- dessous</w>
em bar
el é</w>
délabr é</w>
dégui sé</w>
dé sor
dé coup
dres se</w>
dou lière</w>
di n
di a
dem ois
d' ouvriers</w>
d' obstacles</w>
d' automne</w>
d' attente</w>
d' arrivée</w>
d' animaux</w>
d on</w>
d ai
d -
cuisi ner</w>
couvre- chef</w>
couv rant</w>
cou chée</w>
con for
con cours</w>
con centre</w>
comm ande</w>
color i
colli nes</w>
coiff e</w>
ci tron</w>
chorégraphi e</w>
chari ots</w>
cham eau</w>
cha ts</w>
cer tain</w>
cel ui</w>
can ette</w>
cal me</w>
ca pot</w>
c aill
bra cel
boî tes</w>
bo u</w>
blo c</w>
bles sé</w>
bl az
blaz er</w>
bi ères</w>
bas cule</w>
ban doulière</w>
ball et</w>
balan cent</w>
audi torium</w>
attra ction</w>
attend re</w>
as sorti
as ser</w>
argen tée</w>
ar t</w>
ar che</w>
apr è
ap pel
an ge</w>
all o
afro- américains</w>
adver ses</w>
accrou pis</w>
a des</w>
éven tail</w>
épou x</w>
épou se</w>
ép on
ép aisse</w>
é par
é jec
é checs</w>
è ques</w>
â nes</w>
z er</w>
xi ème</w>
we en</w>
wa ke
vérifi e</w>
vé gé
visi bles</w>
vi eilles</w>
vi eill
vi e
verdoy ante</w>
verdoy ant</w>
ve ston</w>
v rant</w>
v rai
v allée</w>
tu b
trou ver</w>
tri nes</w>
tran spor
tr en
tomb ent</w>
ti ers</w>
tex to</w>
tem ple</w>
tach eté</w>
t- dog</w>
sé cher</w>
syn ch
synch ron
surveill ent</w>
surpl om
sur fer</w>
sup por
sui vent</w>
sui vant</w>
soi gn
so yeux</w>
so da</w>
skat eurs</w>
si ve</w>
servi r</w>
ser veur</w>
ser ies</w>
ser ie</w>
sc ri
savou rent</w>
salu ant</w>
s- mi
s-mi di</w>
s'embras ser</w>
s' as
s sement</w>
s eurs</w>
répar ent</w>
réfléchi ssant</w>
ré ali
roul ants</w>
rempli ssant</w>
regi str
re vêtement</w>
re mu
ray ées</w>
rassembl ant</w>
ras é</w>
ras er</w>
ras ant</w>
ra s</w>
ra ges</w>
quar ium</w>
qu és</w>
qu oi</w>
qu elle</w>
qu at
prot es
proje cteur</w>
pro pri
pro ches</w>
pri x</w>
pourch assant</w>
pour pre</w>
poin g</w>
po ts</w>
po s</w>
po p
pli que</w>
plan e</w>
pier cin
photographi é</w>
photograph es</w>
perru que</w>
per les</w>
pein tre</w>
peig noir</w>
past èques</w>
parti tion</w>
pa ge</w>
p ôt</w>
os pace</w>
oreill ers</w>
oi ts</w>
o ti
o k
nu age</w>
no tes</w>
no mm
navigu ant</w>
n ue</w>
n oc
n eu
n appe</w>
mê mes</w>
médi cal</w>
mé es</w>
mousta chu</w>
mon ospace</w>
mon o
mob y
mo d
mini ature</w>
mi e</w>
mcdonal d</w>
mau v
marchandi se</w>
maratho ni
mar t</w>
mar i</w>
maqu ill
manifes tant</w>
ma j
m age</w>
lév rier</w>
li s</w>
li bre</w>
lanc ent</w>
la crosse</w>
l' obscurité</w>
l og
kaya ki
k a</w>
jee p</w>
jardi nage</w>
j oli</w>
intégra le</w>
inter vie
inform atique</w>
infir mières</w>
in o</w>
in du
indu stri
impli quant</w>
ill ard</w>
i tou
i ques</w>
i a</w>
ho t-dog</w>
har mon
h allo
hallo ween</w>
gor ge</w>
gla ci
g âteaux</w>
fu mer</w>
fro mage</w>
fran chi
for d</w>
fo yer</w>
flâ nant</w>
fi c</w>
ffe r</w>
fer rées</w>
exécu tent</w>
ex i
euro pe</w>
eu xième</w>
entre pôt</w>
entr ant</w>
en la
emm itou
el mo</w>
effectu ent</w>
défil ent</w>
décor ations</w>
débar deurs</w>
dé mar
dé li
dé coupant</w>
dé ci
dé chi
dé ambu
du rant</w>
dri b
dra g
dr ôle</w>
dou che</w>
distribu teur</w>
da le</w>
d'arti fice</w>
d'ar cade</w>
d' utiliser</w>
d' orange</w>
d' oiseaux</w>
d' exposition</w>
d' escrime</w>
d' entretien</w>
d' appar
d' adolescents</w>
d euxième</w>
d age</w>
curi eux</w>
couver ts</w>
corpul ente</w>
con cur
compl et</w>
co la
co l</w>
circu lent</w>
ci er
chè vre</w>
chinoi ses</w>
cher cher</w>
chemin ée</w>
char ge</w>
cha r</w>
cha ge</w>
ch ées</w>
cel lu
cein tures</w>
can nes</w>
can ards</w>
can al</w>
cal èche</w>
c teurs</w>
c aux</w>
buff et</w>
bu r
bu ll
brou illard</w>
bon dit</w>
bizar re</w>
bill ets</w>
bikin is</w>
ban s</w>
ban nière</w>
balanç ant</w>
bai ser</w>
ati f</w>
at a</w>
ar mes</w>
aprè s-midi</w>
an ci
améri que</w>
al et</w>
agri cole</w>
agenou illés</w>
admi re</w>
a quarium</w>
a mar
étr oit</w>
épon ge</w>
é tabli
établi ssement</w>
é meute</w>
é mer
xy lo
xylo phone</w>
wal mart</w>
wake board</w>
visi ère</w>
vi té</w>
vi tres</w>
vi tr
va le</w>
v eu
urgen ce</w>
universi taire</w>
u ri
u n
tâ che</w>
tub a</w>
tré pied</w>
tru ck</w>
traî nant</w>
trans porte</w>
tra fic</w>
touri ste</w>
tom ates</w>
tom ac</w>
tis me</w>
ti ge</w>
tan te</w>
taill er</w>
tai si
tabli ers</w>
suréle vée</w>
sur vêtement</w>
stra tion</w>
str e
stationn ement</w>
souri ants</w>
ski ant</w>
situ ée</w>
sin ge</w>
si gnes</w>
si ble</w>
sho p
shop ping</w>
servi ce</w>
serv euse</w>
se -
sculp tures</w>
sav on</w>
sau ci
salu ent</w>
sal ue</w>
s'é tire</w>
s'é cras
s'ap pu
s'appu yant</w>
s'agenou ille</w>
s' il</w>
s' embrasse</w>
s èche</w>
s è
s tar
s oir</w>
s me</w>
s h</w>
s ens</w>
répè te</w>
rédi ents</w>
récep tion</w>
ru rale</w>
roul é</w>
ron d</w>
ro quoise</w>
ri z</w>
retourn é</w>
re d</w>
rapi de</w>
ra di
r aide</w>
qui tte</w>
quarter back</w>
pu n
prot ège</w>
proch ain</w>
pr é</w>
poê le</w>
poussiér euse</w>
pourch assé</w>
pou ssent</w>
pol y</w>
plong eurs</w>
plat e
plan tant</w>
pla quer</w>
pl ai
pizz a</w>
pin ata</w>
pige on</w>
pi ra
photographi er</w>
peu pl
pau vre</w>
pati nent</w>
pati emment</w>
passa ger</w>
pal mier</w>
paga yant</w>
pa tri
p assi
ou verts</w>
oreill er</w>
or né</w>
ong les</w>
om bra
om bi
olympi que</w>
oi res</w>
offici elle</w>
occu pés</w>
obs cure</w>
ob ile</w>
o te</w>
o eu
nourri t</w>
noi x</w>
no sau
neu f</w>
n et</w>
n es
mâ che</w>
musi cal</w>
muse lière</w>
mu tuellement</w>
mu rale</w>
moy enne</w>
montagn eux</w>
mono poly</w>
mon stration</w>
mi se</w>
mes sieurs</w>
mari n</w>
march and</w>
mar mite</w>
mani ère</w>
ma î
m ène</w>
m on</w>
m ol
lè che</w>
lut tent</w>
li g
lanter nes</w>
lan d</w>
la vent</w>
la pin</w>
l'as pirateur</w>
l' uni
l' ordinateur</w>
l' or
l' image</w>
l' escalier</w>
l' aéroport</w>
l y
l u</w>
ki mon
kaya ks</w>
k s
jusqu' au</w>
ju ges</w>
jou rs</w>
inspec tant</w>
ing rédients</w>
in f
in con
in a
impres sionn
ill ères</w>
ill ent</w>
il es</w>
i roquoise</w>
hu r
his pan
hi stor
harmon ica</w>
ham ac</w>
guitar es</w>
guer re</w>
grim pent</w>
goû ter</w>
gla cier</w>
genou illères</w>
gazonn é</w>
gar der</w>
gar de</w>
gar de-
fri sé</w>
fraî che</w>
fourg onnette</w>
for ces</w>
flâ nent</w>
flan elle</w>
fl am
fil mer</w>
fil mant</w>
fati gué</w>
fan taisi
f eux</w>
extré mité</w>
exerci ce</w>
eth nique</w>
essa yent</w>
espagno l</w>
esc ar
es tomac</w>
es -
enf on
endr oits</w>
en terr
en lève</w>
embras sant</w>
em ball
el és</w>
e ff
e f
détend ant</w>
dégui sée</w>
déco lle</w>
dé monstration</w>
dou ble</w>
donn ent</w>
dom in
do ss
di nosau
di ens</w>
dessi ns</w>
demois elles</w>
del à</w>
d' écrire</w>
d' instruments</w>
câ ble</w>
cuisi nent</w>
crois ées</w>
creu sent</w>
cow- boys</w>
coup ent</w>
contr er</w>
constr uit</w>
con tenu</w>
con tai
comm un</w>
com pris</w>
coll ation</w>
cola t</w>
coiff eur</w>
co tte</w>
co ffre</w>
co ck
clôtu ré</w>
clow ns</w>
cl os</w>
cl ar
ck s</w>
citrou ille</w>
ci le</w>
châ le</w>
cho colat</w>
chi ne</w>
chi c</w>
cher chent</w>
chem ent</w>
cham ps</w>
ch at
cer ceaux</w>
cein te</w>
cat cheur</w>
casser ole</w>
cas ino</w>
cani che</w>
can a
cal mes</w>
ca hi
ca deaux</w>
ca che</w>
c ils</w>
c es
bron z
bro ssant</w>
brill antes</w>
bracel et</w>
br ée</w>
box e</w>
bou lan
bou gie</w>
bor ds</w>
blo quer</w>
bei ges</w>
bat man</w>
bar bus</w>
bam bou</w>
baller ines</w>
ba var
b û
auto ch
au- delà</w>
atter rir</w>
attein t</w>
atta che</w>
att el
ari de</w>
ar ran
ar e</w>
appuy ée</w>
appel é</w>
appar tement</w>
ap proche</w>
an gle</w>
ami que</w>
adolesc entes</w>
admi rant</w>
acti vités</w>
acrobati es</w>
accroch és</w>
accroch ant</w>
accompagn é</w>
a ven
a k</w>
ë s</w>
étudi ante</w>
étrein t</w>
ér é</w>
épar p
élé v
élév ateur</w>
élé g
électri ques</w>
éjec té</w>
échan till
écar t</w>
é tendu</w>
é tait</w>
é dra
édra le</w>
ç a</w>
âg es</w>
y on</w>
y -
w as
vérifi ant</w>
végé tation</w>
voi rie</w>
vi trines</w>
vi se</w>
vi ce</w>
ver ti
ver sant</w>
ver dure</w>
ven tion</w>
ve tte</w>
v i</w>
uni s</w>
ui- même</w>
u p</w>
télépho nes</w>
tâ ches</w>
tu euses</w>
tu elle</w>
ttor al</w>
tron cs</w>
tro ph
troph ée</w>
tr ains</w>
tourn ant</w>
tourn age</w>
tou jours</w>
tou chent</w>
tor ou
torou te</w>
ti r
ti n</w>
ti gre</w>
termin é</w>
ten sion</w>
tein dre</w>
te e</w>
tatou ée</w>
tal ent</w>
tabl eaux</w>
ta ches</w>
t oy
t os</w>
t ho
t aux</w>
t a</w>
sé par
sé ment</w>
sé ance</w>
sup port</w>
sui vi</w>
sui te</w>
su cette</w>
stre et</w>
ssi ère</w>
sprin k
spor ts</w>
spectat eur</w>
souri antes</w>
sour cils</w>
sou tien
sou levant</w>
sor tent</w>
soign eusement</w>
so on
smo king</w>
skate boar
skate -
skate- board</w>
ser rent</w>
scri p
scoot ers</w>
s- unis</w>
s'écras ant</w>
s'ébrou e</w>
s'é chauff
s'amu ser</w>
s ym
s ti
s quar
squar e</w>
s pon
s cope</w>
répar ations</w>
réfléchiss ants</w>
ré pon
roch euses</w>
ro caill
renver sé</w>
ren contre</w>
remu ant</w>
rem et
re tire</w>
rassembl ée</w>
radi o</w>
ra vin</w>
r ène</w>
r y</w>
r y
r all
rall ye</w>
r ait</w>
quit tant</w>
pê chent</w>
pâ tis
py ra
pu b</w>
propri é
professionn els</w>
pri ses</w>
pr ête</w>
pr atique</w>
pou tres</w>
pou dre</w>
por té</w>
pon ey</w>
pol os</w>
po que</w>
pli antes</w>
plate forme</w>
plai san
pla c
pizz er
pizzer ia</w>
pira te</w>
pin ceau</w>
pili er</w>
peupl é</w>
person nag
personnag es</w>
percu ssion</w>
pelu ch
pellet euse</w>
pel ot
pelot on</w>
pati ns</w>
patau ge</w>
par ent</w>
par d</w>
par ce</w>
pag aient</w>
pa v
p hi
ouvri r</w>
ou r</w>
op posé</w>
on ze</w>
oig nent</w>
oi rs</w>
offi cier</w>
obser ver</w>
numé ro
nu m
num érique</w>
nomm é</w>
ni veau</w>
ni er</w>
ni che</w>
ne w
nat tes</w>
n er
mus clé</w>
mu sul
mu ret</w>
mou illée</w>
mor t</w>
mod èle</w>
moby lette</w>
mob ile</w>
mi taines</w>
mexic ain</w>
men ui
me c</w>
mas ques</w>
mas cotte</w>
mari és</w>
maqu ille</w>
man œu
magni fiques</w>
ma quette</w>
m û
lumin eux</w>
lu tte</w>
log o</w>
li ttoral</w>
li e</w>
le vée</w>
la quelle</w>
l' épaule</w>
l' écran</w>
l' avion</w>
l' au
l' attraper</w>
l' arbre</w>
l ées</w>
l à</w>
l ui-même</w>
l ettes</w>
ki ck
jock e
jocke ys</w>
je t
j oin
j eng
jeng a</w>
j ave
jave lot</w>
intervie w
interagi ssent</w>
instru ctions</w>
instal le</w>
infir mière</w>
inf éri
ina chev
in scrip
in habi
in de</w>
in clu
ill ant</w>
i t</w>
i rs</w>
i po
i g
herb euse</w>
haut- de-
haut-de- forme</w>
h a</w>
gui de</w>
gro tte</w>
gravi ssent</w>
grat tant</w>
gonfla bles</w>
gal o
gal ets</w>
g re
g os</w>
fri re</w>
fr uit</w>
fr on
fonctionn er</w>
fon taines</w>
flot tent</w>
fla mmes</w>
feu tre</w>
feu ill
fer mier</w>
fe t
fa brique</w>
f ê
f lor
f le</w>
expres sion</w>
exerci ces</w>
ex tr
ex hi
euro pé
entr ent</w>
entour ent</w>
entou rées</w>
enseign ante</w>
encom brée</w>
en cad
défil ant</w>
défen seur</w>
déchi ré</w>
débar ras
dé sar
dé nei
dra p</w>
donn é</w>
dire c
dinosau re</w>
di r</w>
dessi ner</w>
deman de</w>
de mi-
dai l</w>
d'é cole</w>
d' élèves</w>
d' urgence</w>
d' uniformes</w>
d' oreille</w>
d' ordures</w>
d' objets</w>
d' in
d' hôpital</w>
d' halloween</w>
d' escalier</w>
d' environ</w>
d' avoir</w>
d' attendre</w>
d' athlé
d'athlé tisme</w>
d' asiatiques</w>
d' amérique</w>
d' affi
d rap
célè bre</w>
cycl ette</w>
cuisini ers</w>
cu eille</w>
cu eill
cré er</w>
cré ation</w>
cr ê
coéqui piers</w>
couver cle</w>
coussi n</w>
cour bé</w>
cou d</w>
cor n</w>
contai ner</w>
constr uisent</w>
con s</w>
con fet
com posée</w>
com battant</w>
collè gues</w>
collè gue</w>
clu me</w>
classi que</w>
cir culaire</w>
cigar e</w>
cho n</w>
chi ps</w>
chev alet</w>
char gé</w>
chan dail</w>
cha pi
ch eurs</w>
cellu laire</w>
cano ës</w>
c ross</w>
c re
c rayons</w>
c ath
cath édrale</w>
c ag
bâ che</w>
bull do
bru nes</w>
bri n
br ass
bou le
bo yant</w>
bl ot
bi n</w>
bi cyclette</w>
ber mu
ber ge</w>
bat aille</w>
bar que</w>
banan es</w>
ban li
bam bin</w>
bal ais</w>
b ong
b o</w>
b es
b al</w>
b aisse</w>
ave r
autom obile</w>
attel age</w>
artifi ci
arrê té</w>
ar rose</w>
ar a
aqu atique</w>
applau dit</w>
ap prenant</w>
an g
améri n
ami es</w>
alpin istes</w>
alimen taires</w>
ain si</w>
agri cul
ad or
accom pli
a fin</w>
a bor
œu rs</w>
ô les</w>
étal age</w>
éta gère</w>
ép ées</w>
éléph ants</w>
élé gant</w>
él astique</w>
éclai rages</w>
échar pes</w>
é toi
é tat
état s-unis</w>
é tal</w>
zo o</w>
z é
z ombi
wag en</w>
w o
w at
vrai ment</w>
voy ant</w>
vol ks
volks wagen</w>
vol ants</w>
voi x</w>
vi n
vi des</w>
ver nis</w>
ven irs</w>
vali ses</w>
va ches</w>
va bo</w>
ul ti
ulti ma
ultima te</w>
u s
u le</w>
télé siège</w>
ty pique</w>
tuy aux</w>
tur ne</w>
tu tu</w>
tu mul
tumul tueuses</w>
tu bes</w>
ttor esque</w>
tré bu
tropi cale</w>
tro p</w>
tri tus</w>
tri bu</w>
tres ses</w>
tren ch
trench -co
trench-co at</w>
tr ons</w>
tr e
tourn oy
ton es</w>
toi rs</w>
tin c
ti on
ti ne</w>
ti na
tina tion</w>
termin er</w>
ter rier</w>
ten ter</w>
tein t</w>
tech nique</w>
tatou eur</w>
taill ant</w>
ta tive</w>
ta per</w>
t h</w>
t ements</w>
sè che-
synchron isée</w>
suspend us</w>
surplom be</w>
surf eurs</w>
suppor ters</w>
super man</w>
su eur</w>
ste ak
sta te</w>
spon sor
soutien -
soutien- gorge</w>
souff leur</w>
souff lant</w>
sou venirs</w>
sou ple</w>
sou lever</w>
sou dure</w>
sou der</w>
sor tis</w>
sor tes</w>
soon ers</w>
snowboar der</w>
smas h</w>
sli p</w>
simil aire</w>
si te</w>
si ff
servi ettes</w>
ser ré</w>
sem i
semi -
secou ri
se cours</w>
se att
seatt le</w>
saxo pho
sauci sses</w>
sar is</w>
san g</w>
san g
s'étrei gnant</w>
s'él oignent</w>
s'occu pent</w>
s' endor
s' en</w>
s' ass
s' ad
s'ad res
s œur</w>
s top</w>
s t</w>
s sa
s pat
spat ule</w>
s l
s es
s aires</w>
répè tent</w>
ré pé
ré confor
ry th
ru stique</w>
ru ral</w>
ru bans</w>
rou illée</w>
ron des</w>
ro bo
ri s
res semblent</w>
renif le</w>
rempli ssent</w>
remet tre</w>
regrou pés</w>
recou vrant</w>
rece vant</w>
re vers</w>
re la
re l
rel ais</w>
re c
ras oir</w>
rap pro
ram pes</w>
ram asser</w>
ram assent</w>
ra deaux</w>
r lan
r entrer</w>
qu oti
pédal ant</w>
pyra mide</w>
publici tés</w>
pu ll
pull s</w>
prot è
proje cteurs</w>
profon des</w>
proch aine</w>
pro venant</w>
pro pre</w>
pro posant</w>
pro pos</w>
prin ci
princi pal
principal ement</w>
pri ent</w>
pri ant</w>
pr être</w>
pouss er</w>
pou pées</w>
pou l
poul ets</w>
posi tif</w>
portr ai
portrai ts</w>
porte- documents</w>
por teur</w>
poi ls</w>
po tier</w>
po sante</w>
plu me</w>
plonge on</w>
plong er</w>
pleu t</w>
piercin g</w>
pi ttoresque</w>
pi stes</w>
pi pe</w>
personn els</w>
person nage</w>
per ché</w>
pel les</w>
pe ment</w>
pe -
pe- vent</w>
pat te</w>
partici p
particip ants</w>
parti cu
par tage</w>
par es
pares sent</w>
pan or
pai sible</w>
pag nie</w>
pa trou
pa tien
p ons</w>
p eur</w>
p ca
p a</w>
ou ver
ou s</w>
ot te</w>
ot er</w>
ordi n
oran gé</w>
onn euse</w>
om bres</w>
ol o
offici ers</w>
o pard</w>
o mm
o -
noc turne</w>
no m</w>
new -
new- york</w>
navi ga
naviga ble</w>
nag euse</w>
n' a</w>
n in
n ey</w>
mélan geant</w>
médi caux</w>
méde cin
médecin s</w>
musul man
mou ettes</w>
motoc y
mor dre</w>
montgolfi ères</w>
mo ts</w>
mo tif</w>
mo de</w>
min ton</w>
min ces</w>
mi ami</w>
meu ble</w>
men ton</w>
men ant</w>
mati ques</w>
mar que</w>
mar ins</w>
maqu illé</w>
manu el</w>
manipu lant</w>
mai n
mai d</w>
m el
lé opard</w>
lut teurs</w>
lou r
lou pe</w>
lo cale</w>
lig h
li ères</w>
li v
li ber
liber té</w>
lev ées</w>
le gos</w>
le gg
lan te</w>
la vabo</w>
la v
la pins</w>
la bra
labra do
l'or dre</w>
l'ar t</w>
l' élastique</w>
l' orchestre</w>
l' escrime</w>
l' attention</w>
l' artisan
l'artisan at</w>
l' al
l ateur</w>
kin gs</w>
kick box
je ts</w>
je ter</w>
ja ck</w>
j ui
ipo d</w>
inter ro
inten sément</w>
install ée</w>
inscrip tions</w>
ing ton</w>
inform ations</w>
industri el</w>
inclu ant</w>
in titu
impli qués</w>
imm ob
im posante</w>
ill er</w>
il ant</w>
identi fi
i ssant</w>
hu tte</w>
hor s-
histor ique</w>
hawaï enne</w>
h andi
handi cap
h ai
gui chet</w>
grim per</w>
grill age</w>
grat uits</w>
gol f
ga z</w>
g in
g e-
g au
g an</w>
friandi se</w>
fraî chi
frap pé</w>
fran ç
foul ards</w>
fou rn
fores tière</w>
foncti onne</w>
fo u</w>
flou e</w>
fi er</w>
fantaisi e</w>
fabri quant</w>
f ée</w>
expl o
examin er</w>
ex posés</w>
ex posées</w>
ex pose</w>
ex per
eth niques</w>
essu ie</w>
ess és</w>
er vice</w>
entraî ne</w>
entou rant</w>
enti èrement</w>
entass és</w>
ensei gnes</w>
ensei gnant</w>
enflamm és</w>
en voyant</w>
en lever</w>
en cor
encor e</w>
en clume</w>
en ces</w>
en ceinte</w>
emmitou flé</w>
emm ène</w>
embras ser</w>
el ée</w>
effectu er</w>
e tant</w>
dégui sées</w>
décor ée</w>
dé tritus</w>
dé f
dé chargeant</w>
dé but</w>
drib ble</w>
drag on</w>
doss ard</w>
diver ti
dis positif</w>
di ffi
dessi née</w>
descen te</w>
des tination</w>
der ie</w>
de van
da s</w>
d'affi chage</w>
d' orchestre</w>
d' opération</w>
d' o
d' individus</w>
d' escalader</w>
d' em
d' avi
d' autre</w>
d' au
d' animal</w>
d y
d og
cu pca
cri ant</w>
cou pe-vent</w>
cor ne</w>
constr uite</w>
confet tis</w>
concentr é</w>
con tem
con s
con di
compl è
compl exe</w>
com pagnie</w>
com bres</w>
color ie</w>
colon ne</w>
colli ers</w>
coc o</w>
co pes</w>
co ca
coca -co
coca-co la</w>
cl am
cigar ettes</w>
cier ge</w>
ci vi
ci seaux</w>
cho ir</w>
chirurgi ens</w>
chi ff
char cu
chapi teau</w>
ch asse</w>
ch al
cau cas
cas sée</w>
cas sé</w>
cas se</w>
can yon</w>
cam ping-
cam pement</w>
cabi nes</w>
ca s</w>
ca pi
ca des</w>
c ture</w>
c te</w>
c an</w>
bulldo zer</w>
bui sson</w>
bu ste</w>
bu ll</w>
brû lant</w>
bro sser</w>
boule ver
boulan gerie</w>
bou ts</w>
bou c</w>
blo que</w>
bi ker</w>
bar reaux</w>
bar maid</w>
bar deaux</w>
bar bi
banli eue</w>
banan e</w>
bai gnent</w>
bad minton</w>
ba voir</w>
b œufs</w>
b aie</w>
au to</w>
au près</w>
atter rit</w>
ati fs</w>
assi stan
assi s
ass eur</w>
as sembl
as pirateur</w>
artifici elle</w>
ara be</w>
ar ro
ar mu
appuy és</w>
appro chant</w>
ap ple</w>
anci enne</w>
an ds</w>
am er
allu me</w>
agri p
agi tent</w>
afric aines</w>
ad os</w>
acti vité</w>
achet eurs</w>
acci den
acc ess
ac teurs</w>
a î
a jou
a bles</w>
a be
a ban
1 0</w>
-s ho
-s ervice</w>
étoi les</w>
étoff es</w>
éta ges</w>
ép i</w>
élè ve</w>
él abor
éclabou sse</w>
échantill on</w>
éch appe</w>
é téri
étéri a</w>
é tu
é tage</w>
é ner
é ment</w>
é cl
y si
x -
was h
wash ington</w>
wal k
volley -ball</w>
voi les</w>
vitr ée</w>
visi te</w>
violon iste</w>
vin g
vi ter</w>
ve z</w>
va trice</w>
va tion</w>
v ues</w>
v ons</w>
us ten
universi té</w>
ui- ci</w>
u or</w>
u k
ty ro
tyro li
tyroli enne</w>
tu el</w>
tru c</w>
trou vant</w>
trou s</w>
trot te</w>
tropi cal</w>
trom pe
trom bo
trombo ne</w>
tri coté</w>
trem pé</w>
tran ches</w>
trai neau</w>
tra ce</w>
tr ie</w>
tr essés</w>
tr ait</w>
touri stique</w>
tor tue</w>
tor ches</w>
tor che</w>
toi lettes</w>
to que</w>
to ne</w>
tis sement</w>
tion -service</w>
ti ste</w>
ti quement</w>
ti onne</w>
th èque</w>
ter mine</w>
tem p
temp ête</w>
tar de</w>
tar d</w>
tan ce</w>
tambou ri
tal ents</w>
tabou rets</w>
ta pent</w>
ta n</w>
t ôt</w>
t une</w>
t onne</w>
sym bo
suréle vé</w>
surveill ant</w>
sur di
surdi men
surdimen sionn
super be</w>
sui vre</w>
sub way</w>
su rer</w>
struc tures</w>
stor es</w>
steak s</w>
stationn é</w>
star bu
starbu cks</w>
stan ds</w>
sta tion-service</w>
ssa de</w>
sprink l
sprinkl ers</w>
sprin te</w>
spi der
spider man</w>
souff ler</w>
sou pe</w>
sou levé</w>
sor ti</w>
son n
so c
soc cer</w>
snowboar deurs</w>
smash e</w>
smash ant</w>
skateboar ds</w>
simil aires</w>
silhou ettes</w>
siff let</w>
sho oter</w>
sho ote</w>
servi ces</w>
ser pent</w>
sen i
sculp teur</w>
sculp te</w>
sal eté</w>
sa co
saco che</w>
s- volants</w>
s'ex er
s'ap pro
s w
s tre</w>
s tiques</w>
s quel
s ph
s pe
spe e
spee do</w>
s par
s pa</w>
s ils</w>
s elle</w>
s el
s am
s -s
répé tant</w>
récu père</w>
ré tro
ré ce
réce mment</w>
ré agi
ryth me</w>
rui nes</w>
ru ade</w>
roul eau</w>
rocaill eux</w>
robo t</w>
ro me</w>
ri en</w>
res ter</w>
res tant</w>
res pec
représen tation</w>
renif lant</w>
rem ue</w>
rem et</w>
rem bour
religi eux</w>
rela x
ran gées</w>
ra i</w>
ra fraîchi
r ons</w>
quit tent</w>
quat uor</w>
qua ge</w>
qu' on</w>
qu anti
quanti té</w>
pê cheurs</w>
pé tales</w>
pé dale</w>
pulvéri se</w>
pui sse</w>
prél assant</w>
promen er</w>
proje tant</w>
professionn elles</w>
prod uire</w>
pro jetée</w>
pro fond</w>
pr un
pr esse</w>
pouss ettes</w>
pou ces</w>
por tée</w>
por c</w>
pon i
poni bles</w>
poin tes</w>
po w
po ses</w>
plu tôt</w>
pleu rer</w>
plat eaux</w>
plan ter</w>
pla quant</w>
pla quage</w>
pl exe</w>
pl as
pl aine</w>
pistol ets</w>
pin gou
pil es</w>
photographi ent</w>
photographi e</w>
ph ysi
personn el</w>
per plexe</w>
pen se</w>
pen d</w>
pay san</w>
pati ne</w>
passi onn
pas sé</w>
partici per</w>
parallè les</w>
para ch
parach uti
par vient</w>
par tant</w>
pa tron</w>
pa on</w>
pa ges</w>
p éré</w>
p uits</w>
p eurs</w>
ouver ture</w>
ot a</w>
orn ements</w>
onn ée</w>
ombre lles</w>
ok la
okla ho
oklaho ma</w>
ob tenir</w>
ob ama</w>
o ff
o f</w>
numéro s</w>
nu ée</w>
nou illes</w>
nom s</w>
ni ve
ni ke</w>
nettoy age</w>
nei g
nag euses</w>
n once</w>
n ol
n 'est</w>
médié vale</w>
mé cani
mè tre</w>
mè ches</w>
mâ cher</w>
mus elés</w>
mu seau</w>
mou tarde</w>
mou illés</w>
mor te</w>
mon té</w>
moi ne</w>
mix age</w>
mini -sho
mini-sho rt</w>
mini -
micros copes</w>
mi gnon</w>
mi ck
me tière</w>
me cs</w>
maî tre</w>
mauv aises</w>
masculi ne</w>
mari onnette</w>
marathoni enne</w>
mar qué</w>
mar queur</w>
mal heureux</w>
mai ne</w>
mai gre</w>
m s</w>
m ement</w>
m eill
lumin euse</w>
lon gu
lin gerie</w>
ligh t</w>
li on</w>
li ne</w>
li n</w>
li gue</w>
li eux</w>
li ce</w>
li br
les sive</w>
legg ing
legging s</w>
le -
labrado r</w>
la c
lac ets</w>
l'au toroute</w>
l'as phalte</w>
l' épée</w>
l' harmonica</w>
l' exercice</w>
l' est</w>
l' aider</w>
l os</w>
l ait</w>
kite surfeur</w>
kimon os</w>
kickbox ing</w>
kayaki ste</w>
k es</w>
k arti
karti ng</w>
journ ali
jou es</w>
jet tent</w>
je té</w>
japon aise</w>
jap on</w>
jailli ssant</w>
jailli r</w>
intéres sant</w>
interagi t</w>
inten se</w>
install és</w>
instal lent</w>
inféri eure</w>
indi quant</w>
incon nue</w>
incli né</w>
in visible</w>
in on
in ette</w>
in cro
incro ya
im patiemment</w>
ill ées</w>
i tal
i sé</w>
i sol
i n</w>
i di
hô tesse</w>
ho t
ho l
hispan ique</w>
hip po
har pe</w>
han ches</w>
hai es</w>
ha w
ha m</w>
h en
h ambu
hambu r
gé antes</w>
guitar istes</w>
gri ses</w>
gri n
gran d-
gr ès</w>
gou t</w>
gon fle</w>
gn ée</w>
glaci ères</w>
gen re</w>
ga s</w>
g ène</w>
fu sils</w>
fro tte</w>
friandi ses</w>
fraî chement</w>
frap pent</w>
franchi t</w>
fourn eaux</w>
four ni
four chette</w>
for tune</w>
for mer</w>
for ment</w>
foo ting</w>
fo ssé</w>
fleu ri
fl éch
fl èche</w>
fl ou</w>
fi s
fi ne</w>
fau sses</w>
fai ts</w>
f an</w>
exécu te</w>
extr ê
expéri men
exci té</w>
essu yant</w>
entass ées</w>
ennei gées</w>
eng ins</w>
enf ile</w>
enf ilant</w>
endor mie</w>
encoura gent</w>
encoura geant</w>
encom bré</w>
en vol</w>
en registr
empil ées</w>
em prun
ei gnant</w>
ef fort</w>
e d</w>
désar çonn
dépla cer</w>
démar rer</w>
débarras se</w>
déambu lateur</w>
dé mé
dé gu
dé combres</w>
dé ball
dr ôles</w>
dou ze</w>
dor és</w>
dor ées</w>
domin os</w>
dog s</w>
dis tance</w>
dis ponibles</w>
dis ney</w>
dis co
disco thèque</w>
din de</w>
di z
di ant</w>
devan ture</w>
der nière</w>
den taire</w>
demi- cercle</w>
dal les</w>
d'é teindre</w>
d'é poque</w>
d'é glise</w>
d'arti stes</w>
d'arti cles</w>
d'ar gile</w>
d' équipes</w>
d' ultimate</w>
d' informatique</w>
d' essayer</w>
d' avion</w>
d' allure</w>
d' aller</w>
d' acheter</w>
d rome</w>
d oit</w>
d le</w>
d enti
d au
céré ales</w>
câli ns</w>
cré ant</w>
cra che</w>
cr u
couvre- chefs</w>
couver tes</w>
cour tes</w>
cour be</w>
cou ture</w>
cou n
cou chés</w>
cor niche</w>
cor nes</w>
conver se</w>
contre basse</w>
contem pl
cond uire</w>
concur r
con ser
comm uni
colori age</w>
coiff é</w>
coc a</w>
co r</w>
co pi
co o
cli ente</w>
clar inette</w>
cl ou</w>
civi le</w>
citrou illes</w>
ci metière</w>
choisi ssant</w>
chiff on</w>
chevau chent</w>
chaî nes</w>
char gent</w>
cham pagne</w>
ch é
ch o</w>
cerf s-volants</w>
cel ui-ci</w>
ce la</w>
caucas ien</w>
cas cades</w>
cares sant</w>
car ic
car i
car avan
caravan e</w>
cani n</w>
cani ches</w>
can on</w>
can ettes</w>
camé ras</w>
camping- car</w>
cam peurs</w>
cal es</w>
cahi er</w>
cag ou
caf étéria</w>
c és</w>
c re</w>
bé tail</w>
bru m
bron ze</w>
bri tan
brass ards</w>
box eur</w>
box ant</w>
bou ton</w>
bou s
bou cles</w>
bou cle</w>
bon homme</w>
bo b</w>
bi tu
bes oin</w>
bermu da</w>
be l</w>
bassi ne</w>
bar ils</w>
bar b
bander oles</w>
ban quette</w>
ban dés</w>
ban deaux</w>
balan cer</w>
bai gne</w>
ba gar
b ili
b il
avan t-
avan ce</w>
auto bus</w>
audi toire</w>
ati ve</w>
at ti
at eurs</w>
assorti ment</w>
assorti es</w>
ascen sion</w>
as tron
as phalte</w>
arti stiques</w>
arti san</w>
arrê tée</w>
arros eur</w>
arri vant</w>
ar bor
aqu a</w>
appréci e</w>
applau dissant</w>
anti émeute</w>
anti -
an nées</w>
an nonce</w>
an niversaire</w>
an neau</w>
an ne</w>
ami sh</w>
ajus tant</w>
ai me</w>
ag ée</w>
ag ré
affi ches</w>
adver saires</w>
ador able</w>
ado ssée</w>
admi rent</w>
accroch ées</w>
a r</w>
a chats</w>
étu i</w>
éta gères</w>
ér ateur</w>
éparp illés</w>
éner gi
élég ante</w>
élé vatrice</w>
électri cien</w>
él é</w>
él ère</w>
él as
écra se</w>
éc ag
é tirant</w>
é tinc
étinc elles</w>
é tend</w>
é t
é mor
é mi
é cage</w>
é bou
ébou ri
ébouri ff
è se</w>
è nement</w>
â ché</w>
zé bré</w>
zz le</w>
z z</w>
y am
yam a
yama ha</w>
xi s</w>
wi ster</w>
wat er</w>
w or
w ing
wing -
wing- gu
wing-gu m</w>
w el
voyag eurs</w>
voyag eant</w>
voy agent</w>
voi rs</w>
voi liers</w>
voi ent</w>
vo û
visi ons</w>
vieill ards</w>
vi seur</w>
vi s</w>
vi ns</w>
veu t</w>
verti cale</w>
ver ser</w>
ver sent</w>
vend us</w>
ven ue</w>
ve ttes</w>
ve gas</w>
vag es</w>
va por
v ill
vill ag
villag e
village ois</w>
v ates</w>
usten sil
ustensil es</w>
uri ante</w>
téti ne</w>
télé comman
tél é</w>
tu tus</w>
tu nique</w>
tu iles</w>
tu eux</w>
trébu che</w>
trou peau</w>
trou ble</w>
trottin ettes</w>
tron çon</w>
trompe t
trompet tiste</w>
trico te</w>
trico t</w>
tri ème</w>
tri bu
tri bal</w>
tri ant</w>
tri angle</w>
tre il
treil lis</w>
traî nent</w>
trav en
traven tion</w>
trans parent</w>
traditionn elles</w>
tra l</w>
tr y</w>
tout- petits</w>
tournoy er</w>
tour ni
tourni quet</w>
tou ff
ton nière</w>
ton nier</w>
ton dant</w>
tom ate</w>
ti seur</w>
ti rés</w>
ti rées</w>
ti m
ti ges</w>
ti are</w>
thé tiseur</w>
tex tos</w>
tex ti
terr i</w>
termin ant</w>
tend ues</w>
ten us</w>
te e
tee -shi
te ck
tch en
tchen ai
tchenai d</w>
tar te</w>
tam -
tam- ta
tam-ta m</w>
tai ls</w>
ta xis</w>
ta t</w>
ta plane</w>
t ères</w>
t wister</w>
t t
t nes
tnes s</w>
t esque</w>
sé min
sémin aire</w>
sèche- linge</w>
syn thétiseur</w>
sweat-shi rts</w>
sui vie</w>
sub stan
substan ce</w>
su mo</w>
su jet</w>
str é</w>
stationn ée</w>
stat ues</w>
ssi ons</w>
ss és</w>
ss ante</w>
squel ette</w>
specta culaire</w>
sous- marine</w>
sou s-s
sous-s ol</w>
sou lèvent</w>
somm ets</w>
som br
sombr er
sol o</w>
so le</w>
smo kings</w>
sli de</w>
sl al
sk ier</w>
situ ation</w>
si vement</w>
si rène</w>
si nu
si mul
si f</w>
sho p</w>
ser vent</w>
ser rés</w>
seni ors</w>
secouri stes</w>
se c</w>
sculp tant</w>
scienti fiques</w>
sci ant</w>
saxopho ni
savou rant</w>
sauve teurs</w>
sau vages</w>
sau ts</w>
san té</w>
salu er</w>
sal ade</w>
saisi ssant</w>
sa bl
s'échauff ant</w>
s'exer çant</w>
s'ex pri
s'endor t</w>
s'as se
s'ap pelle</w>
s'adres se</w>
s' écrase</w>
s' éclaboussant</w>
s' assi
s'assi ed</w>
s' accrochant</w>
s tu
s oin</w>
s ha
s ex
sex y</w>
s ain
réfléchi t</w>
récol tes</w>
récol te</w>
réali ser</w>
ré ser
ré no
ré fu
réfu gi
ré fri
réfri g
ré d
rug b
rugb ym
ros ses</w>
ron dins</w>
roch et</w>
ro i</w>
ro ck
ris sage</w>
ri n
ri deau</w>
res tent</w>
ren aiss
renaiss ance</w>
reli é</w>
relax ant</w>
registr ement</w>
refl ets</w>
rece voir</w>
rebon dir</w>
re trou
re tiré</w>
rap porte</w>
randonn euse</w>
rambar des</w>
ram eurs</w>
ram an</w>
ra tisse</w>
ra ff
ra con
r è
r su
r sem
qua trième</w>
qu ins</w>
qu ill
qu es
qu e
péri o
pério de</w>
pédal o</w>
pé tro
pé n
pâtis series</w>
pun k</w>
publi cs</w>
pu zzle</w>
pu ces</w>
pré fér
protè ge-
protes tation</w>
prote ctions</w>
proprié taire</w>
proje ction</w>
pro pr
propr es</w>
pri mai
primai re</w>
pri e</w>
pres tation</w>
poê les</w>
pouss é</w>
pourch asse</w>
pou vez</w>
pou belles</w>
posi tionn
por tail</w>
por ama</w>
pop -
pop- corn</w>
pon g</w>
pom pes</w>
poi lu</w>
po table</w>
po ss
po le</w>
po ches</w>
pneu matiques</w>
plu vi
plong ent</w>
plei nes</w>
plac ées</w>
pl âtre</w>
pié tonnier</w>
pié tonne</w>
pirat es</w>
ping- pong</w>
pin çant</w>
pin i
pin ces</w>
pin ce</w>
pilo tant</w>
pi t</w>
pi t
pi re</w>
pi ration</w>
pi ques</w>
pi eu
pieu vre</w>
pi ce</w>
photographi ée</w>
phi n</w>
ph ar
peu vent</w>
perru ques</w>
percu ter</w>
percu te</w>
per çant</w>
per on</w>
pen chés</w>
pen chées</w>
pen chent</w>
pellet tent</w>
pell etant</w>
pein tes</w>
pei ne</w>
pay sa
patrou ille</w>
patri o
patin euse</w>
patien te</w>
pati ons</w>
particu lier</w>
parti es</w>
para chu
parachu tes</w>
par ten
panor amique</w>
pal ais</w>
pai n
pain tball</w>
pagn on</w>
paga ye</w>
pa per
p per</w>
p ali
pali ssade</w>
our eux</w>
orn em
ori gin
or née</w>
op posées</w>
ong le</w>
on nes</w>
ombra gée</w>
olo gi
ol o</w>
oisi ère</w>
og ie</w>
offi ciel</w>
oeu vres</w>
occu pées</w>
occu pations</w>
oc cas
occas i
occasi on</w>
ob èse</w>
o sier</w>
o live</w>
o k</w>
o h</w>
o ffre</w>
o d</w>
nœu ds</w>
né gli
nouve aux</w>
ni ères</w>
ni ers</w>
nat te</w>
n ues</w>
n ati
nati on
n a</w>
mè tres</w>
musulman s</w>
musi cales</w>
muse lières</w>
mus elé</w>
mu le</w>
mou ette</w>
mou e</w>
mot o-
mor ts</w>
mor tes</w>
mor dant</w>
mor d
montr er</w>
montagn euse</w>
mon i
mo quette</w>
mix te</w>
min uti
mick ey</w>
mi cile</w>
menui sier</w>
mel ons</w>
me sur
mati née</w>
mati n</w>
mas su
mas qué</w>
mas car
mascar a</w>
march eurs</w>
mar écage</w>
mar écag
mar rons</w>
mar elle</w>
mar c
marc el</w>
manœu v
maj es
mag ique</w>
m ères</w>
m ot</w>
m ets</w>
m atique</w>
légu me</w>
lég ère</w>
lé chant</w>
ly cé
lycé ens</w>
lux uriante</w>
lut teur</w>
lun ette</w>
lour d</w>
lon ge</w>
libr airie</w>
li ste</w>
les quel
lave -
lar ges</w>
lanter ne</w>
lam beaux</w>
lam a</w>
lai ssant</w>
la tine</w>
la bou
l'é vier</w>
l'é glise</w>
l'uni ce
l'unice f</w>
l' éponge</w>
l' université</w>
l' oreille</w>
l' opposé</w>
l' on</w>
l' objet</w>
l' instrument</w>
l' estomac</w>
l' escalator</w>
l' arrivée</w>
l' a
l és</w>
l ot
l ants</w>
kil ts</w>
ki tchenaid</w>
kayaki stes</w>
kar t</w>
joy eux</w>
joy euses</w>
jong ler</w>
joli es</w>
japon aises</w>
jail lit</w>
ja zz</w>
j on
j '
isi ers</w>
intitu lé</w>
inter net</w>
inter dit</w>
install é</w>
ins titu
ins tant</w>
inhabi tuelle</w>
inachev é</w>
in vités</w>
in soli
in se
impressionn ant</w>
immob ili
illumin é</w>
ill ette</w>
id en
iden tique</w>
i vre</w>
i gn
hur lant</w>
hu maine</w>
hot dogs</w>
hori z
hor lo
ho rri
hippo drome</w>
hip pique</w>
hi rsu
hen né</w>
haut- par
handicap ée</w>
hambur gers</w>
h y
h ouse</w>
h eure</w>
gé ants</w>
gui rlan
gui don</w>
gu eu
gueu les</w>
gre en</w>
gravi r</w>
gran d
gr enou
gou ver
gou r
golf eur</w>
go ûte</w>
gli ssière</w>
glaci ère</w>
gla cé</w>
gi gan
gigan tesque</w>
ges ticule</w>
ger on</w>
ge les</w>
gam ins</w>
ga r</w>
ga p</w>
g h</w>
g eur</w>
g elée</w>
g elé</w>
g ei
fémini ne</w>
fu ri
fron tale</w>
franç ais</w>
fou ille</w>
for mée</w>
for geron</w>
for ce</w>
fo sse</w>
fla g</w>
fl exi
fix es</w>
fix e</w>
figu ri
fi tness</w>
fi e</w>
fi celle</w>
fes ses</w>
fer mé</w>
fau con</w>
fas cin
far ine</w>
fam ili
f rou
f re
f ol
f illette</w>
explo sion</w>
exhi be</w>
ex tension</w>
ex posant</w>
ex plique</w>
ex cep
europé en</w>
eu res</w>
essen ce</w>
es ti
es pè
er e</w>
envelop pée</w>
entr el
entrel ac
ensoleill é</w>
enla çant</w>
enla ce</w>
enfon çant</w>
enf once</w>
endor mis</w>
end omm
en- cas</w>
en venue</w>
en roulé</w>
en levé</w>
en clos</w>
embras sé</w>
e çon</w>
e z</w>
e m</w>
déploy ées</w>
déli ci
déjeu nent</w>
défen seurs</w>
défen d</w>
découp é</w>
décor ative</w>
décoll er</w>
dé tient</w>
dé pose</w>
dé ca
déca potable</w>
dé bl
dé balle</w>
dé ambulant</w>
du nes</w>
dres sée</w>
dr ai
drai nage</w>
dou ce</w>
donn ée</w>
do o</w>
do micile</w>
diz aines</w>
diverti t</w>
diver tir</w>
dispu tant</w>
dis posés</w>
direc t</w>
diplô mé</w>
différ ent</w>
dia porama</w>
di sent</w>
di es</w>
di enne</w>
di able</w>
dessi né</w>
deman dant</w>
del taplane</w>
de x</w>
de vi
de mment</w>
de ere</w>
dau phin</w>
dan te</w>
dal le</w>
da y</w>
d'é gout</w>
d'en registrement</w>
d'appar tements</w>
d'appar ence</w>
d'an ge</w>
d'al cool</w>
d' ouvrir</w>
d' outils</w>
d' ours</w>
d' oreilles</w>
d' ordinateurs</w>
d' intéressant</w>
d' indiens</w>
d' images</w>
d' entrer</w>
d' asie</w>
d ons</w>
d ol
d ar
célé br
célébr ant</w>
célè br
célèbr ent</w>
cy gne</w>
cul er</w>
cui vre</w>
cu vette</w>
cu ve</w>
cu lent</w>
crê pe</w>
croi sent</w>
cri er</w>
cra vates</w>
cra be</w>
cr oisière</w>
cour onnes</w>
coup é</w>
coun try</w>
cou tu
cou de</w>
cou chant</w>
corn ets</w>
contr ô
contr e-
cons titu
cond uisent</w>
concurr ents</w>
concur rent</w>
con travention</w>
con grès</w>
complè tement</w>
comp te</w>
commer çant</w>
commer ç
comman des</w>
comman der</w>
comm émor
com pagnon</w>
com bat
combat tants</w>
colli e</w>
col ère</w>
coiff euse</w>
cock pit</w>
co ts</w>
co lle</w>
co la</w>
clai rsem
cl ous</w>
cl o
cl ette</w>
cir eur</w>
ci trons</w>
ci rer</w>
chè vres</w>
choisi ssent</w>
chirurgi cale</w>
chinoi se</w>
chi te
chi ste</w>
cher ie</w>
che wing-gum</w>
chat on</w>
charcu terie</w>
char pente</w>
char ger</w>
char bon</w>
cham pi
chac une</w>
cer isiers</w>
cen tral</w>
cen te</w>
cat ch</w>
carre four</w>
caric ature</w>
cares sent</w>
car rés</w>
car ré</w>
cana dien</w>
camé raman</w>
cam pe</w>
cagou le</w>
caf e</w>
ca mar
c œurs</w>
c rue</w>
c rosses</w>
c rochet</w>
c ations</w>
c arri
carri ole</w>
c ali
c a</w>
bé tonnière</w>
bé quilles</w>
bé né
bu n
bu m</w>
brou ss
broch ure</w>
britan nique</w>
brin gé</w>
bri se</w>
bri lle</w>
br é
box eurs</w>
box er</w>
bous culent</w>
bou tons</w>
bou tonn
bou cherie</w>
bou cher</w>
bor dant</w>
bong os</w>
bo y
bo x</w>
bo ston</w>
bo sse</w>
blo qué</w>
bleu -
bleu- vert</w>
bl é</w>
bl ue</w>
bill et</w>
bi tres</w>
bi ne</w>
bi envenue</w>
beau té</w>
bavar dent</w>
bassi ste</w>
ban nières</w>
ban des</w>
ball ot</w>
bal lage</w>
bal cons</w>
bal ad
bagu ette</w>
b ant</w>
aéro sol</w>
autom ati
automati ques</w>
autoch tones</w>
autoch tone</w>
au vent</w>
atter rissage</w>
atta chent</w>
at terri</w>
assis tant</w>
ascen seur</w>
as t</w>
artifi ciel</w>
arbor ant</w>
ar ra
ar gile</w>
ar chet</w>
ar c</w>
ar bitres</w>
appuy ées</w>
appar tenant</w>
appar emment</w>
appar aî
appar ai
ap plique</w>
ap pel</w>
an i
an ges</w>
an geles</w>
an as</w>
amer ica</w>
amar ré</w>
am oureux</w>
am our</w>
allu mée</w>
all ai
al ement</w>
al bum</w>
ajus ter</w>
agré able</w>
agricul teur</w>
agi tée</w>
ag u
afri que</w>
af fe
ad or</w>
ad o</w>
acrobati ques</w>
accroch ée</w>
accroch ent</w>
accompagn ée</w>
access oires</w>
acc élé
acc élère</w>
ac tuellement</w>
ac clam
a d</w>
a ce</w>
a boyant</w>
5 0</w>
0 0</w>
û ts</w>
ï que</w>
étudi ent</w>
étrein te</w>
étran ges</w>
étran gers</w>
éti quettes</w>
éti quette</w>
étal s</w>
éta t</w>
équili bré</w>
équi page</w>
équ estre</w>
éparp illées</w>
ép rou
ép ing
émi ssion</w>
émer ve
émer ge</w>
élég antes</w>
élé gants</w>
élas th
élasth anne</w>
écri vent</w>
éco lière</w>
éco lier</w>
éclai rées</w>
éclabou ssée</w>
éclabou sser</w>
échi qu
échiqu ier</w>
éch elles</w>
éc ess
ébouriff és</w>
é va
éva cu
é v
év ènement</w>
é tri
é tonn
è les</w>
è de</w>
ç u</w>
à -
zombi es</w>
zombi e</w>
y- up</w>
y euse</w>
y an
x ford</w>
wo od</w>
wi i</w>
walk ie</w>
w on
w n</w>
w he
w girl</w>
w c</w>
vérifi er</w>
vél o
vé ran
véran da</w>
voyag eur</w>
voy er</w>
vol ante</w>
voi lées</w>
vo te</w>
vo les</w>
vo i</w>
vitr ées</w>
visi tant</w>
vi vement</w>
vi v
vi sée</w>
vi sé</w>
vi gour
vigour eusement</w>
vi et
viet n
vietn ami
verdoy antes</w>
ve lu</w>
ve l
var e
vare ch</w>
val lon
vallon né</w>
val eur</w>
va quent</w>
v ori
v aux</w>
v ap
v an</w>
urb ains</w>
uni quement</w>
ul élé</w>
uk ulélé</w>
ui sante</w>
ui ent</w>
u stré</w>
u sa</w>
u mini
umini um</w>
u m
um eau</w>
télépho niques</w>
télécomman dé</w>
té tho
tétho scope</w>
té m
tém oin</w>
tur bans</w>
tu li
tuli pes</w>
tru cs</w>
trou pes</w>
trou pe</w>
trot tant</w>
tricy cles</w>
trico ter</w>
tribu nes</w>
tri o</w>
tri gué</w>
tri ent</w>
tran chée</w>
tra pè
trapè ze</w>
tra de</w>
tra ces</w>
tr e-
toy ota</w>
toy ens</w>
tourn es
tourn ent</w>
tourn e
tourne vis</w>
tour noi
touff ue</w>
tou rs</w>
tor se-
torse- nu</w>
toi lette</w>
titu de</w>
tis sage</w>
till ante</w>
ti ssent</w>
ti né</w>
ti ns</w>
ti fi
ti ens</w>
texti le</w>
termin ent</w>
tend o</w>
tend ent</w>
ten ces</w>
tem por
tempor aire</w>
tee-shi rt</w>
teck el</w>
tech nol
technol ogie</w>
tech ni
techni cien</w>
te- fille</w>
te- ciel</w>
tar tan</w>
tan ément</w>
tan gu
tambouri n</w>
tambou rs</w>
taill és</w>
tabl ement</w>
ta r</w>
ta mi
ta g
ta bac</w>
t ège</w>
t ty</w>
t ot
t ha
t est</w>
t es-
t elle</w>
t asses</w>
sé jour</w>
sé d
séd uisante</w>
sé curi
sé chant</w>
symbo le</w>
sy st
syst ème</w>
suspend ues</w>
surplom b</w>
surf ent</w>
sur ée</w>
sur vêtements</w>
sur volant</w>
suppor ts</w>
sui s</w>
su çant</w>
su s-
su res</w>
su d-
su c
stu pi
str o
stro bo
strobo sco
strobosco piques</w>
str ait</w>
stor y</w>
stor e</w>
ste ak</w>
st oire</w>
ssi ers</w>
ss en
spéci ali
spor tifs</w>
sponsor isé</w>
spec tus</w>
sous- marin</w>
souff re</w>
souff lent</w>
sou deur</w>
sou dage</w>
sou che</w>
son ne</w>
sombrer o</w>
so das</w>
smash er</w>
slal o
skat er</w>
sk y</w>
sk im
siro te</w>
siro tant</w>
simul tanément</w>
sim pl
simpl ement</w>
si tue</w>
si ni
sini stre</w>
si g
si de</w>
si de-
side- car</w>
sho wgirl</w>
seu ls</w>
servi s</w>
ser ts</w>
ser rée</w>
ser rer</w>
ser re-
serre- tête</w>
ser pil
ser pen
sem ents</w>
se z</w>
se ins</w>
se cs</w>
se con
se a
sculp té</w>
scou t</w>
sc les</w>
sc in
savou r
savour eux</w>
sau na</w>
sau mon</w>
sau ce</w>
sar i</w>
san tes</w>
san i
sani taires</w>
san gle</w>
san dale</w>
sam ou
samou ra
saisi r</w>
sain t</w>
sabl onneuse</w>
sa ïque</w>
s- nu</w>
s'él an
s'é chau
s'échau ffer</w>
s'expri me</w>
s'enla cent</w>
s'enla ce</w>
s'en vole</w>
s'ass oit</w>
s'ass oient</w>
s'as surer</w>
s'arrê tant</w>
s'appro chent</w>
s'ap pui
s'appui ent</w>
s'affron ter</w>
s' incli
s' em
s' ali
s'ali gnent</w>
s' accrochent</w>
s équ
s téthoscope</w>
s ters</w>
s s</w>
s quée</w>
s pace</w>
s hi
s ham
s cru
rétro -
répon d</w>
réfrig érateur</w>
réfléchiss antes</w>
réd uit</w>
récupé rant</w>
récu péré</w>
récol tent</w>
récipi ents</w>
réali se</w>
ré u
ré si
ré cré
ré chaud</w>
rè gle</w>
roul ée</w>
rou pier</w>
rou illé</w>
ro vi
ro buste</w>
ri tuelle</w>
ri gol
ri di
retourn ée</w>
représen te</w>
renver sée</w>
ren voyer</w>
rempl ir</w>
rembour ré</w>
regrou pées</w>
regard é</w>
recou verts</w>
recou vertes</w>
rec tement</w>
rec tangu
rebon dit</w>
re venant</w>
re trouve</w>
re trai
re tirer</w>
re tient</w>
re pos</w>
re pli
repli é</w>
re join
re cule</w>
re constitu
re cherche</w>
ray ant</w>
ran gs</w>
ram pons</w>
rai nes</w>
rai lle</w>
rai des</w>
racon te</w>
ra pe</w>
ra mique</w>
ra mes</w>
ra gent</w>
ra ce</w>
r ê
r âteau</w>
r oi
roi tement</w>
r entre</w>
r entrant</w>
r endre</w>
r a</w>
quoti dien</w>
qui tés</w>
qu ées</w>
qu et
qu ais</w>
pétro le</w>
pé li
pè se</w>
pè rent</w>
pâtis serie</w>
pâ ques</w>
publici taires</w>
pu tt</w>
pu ma</w>
présen tent</w>
présen tat
présen tant</w>
prépar ation</w>
prél assent</w>
préfér é</w>
préci pi
pré serv
proté gée</w>
prote cteurs</w>
proprié taires</w>
prom ou
promou vant</w>
proje té</w>
profon dé
profondé ment</w>
profi ter</w>
pro visions</w>
pro spectus</w>
pro pose</w>
pro pan
propan e</w>
pro gra
pro fil</w>
prin temps</w>
pres sent</w>
pre in
prein tes</w>
prati quer</w>
pr on
pow er
power point</w>
pourch assent</w>
pour rait</w>
pou dr
poss es
posses sion</w>
posi tionne</w>
pos térieur</w>
pos ter</w>
pos t-
porte- voix</w>
porte- bébé</w>
por tière</w>
por tante</w>
por cs</w>
pop corn</w>
pon cho</w>
pon cho
poncho s</w>
pon ce</w>
pom pons</w>
pom pe</w>
polici ère</w>
poli tiques</w>
poli tique</w>
pol lu
poin tu</w>
poin gs</w>
poign ées</w>
poign ets</w>
po oi
pooi ng</w>
po ker</w>
pneu matique</w>
pluvi euse</w>
pli quant</w>
pli ant</w>
pleu rant</w>
plas tron</w>
plan tés</w>
plan eur</w>
pla ques</w>
pla quent</w>
pl i</w>
pl e
ple ins</w>
pié tiné</w>
piqu eur</w>
pini ons</w>
pingou in</w>
pili ers</w>
pil lons</w>
piercin gs</w>
pi ssen
pi rer</w>
pi e</w>
pi ck
pick -
pick- up</w>
pi c</w>
physi que</w>
photographi és</w>
phar ma
ph are</w>
peti te-fille</w>
percu ssions</w>
per man
per d</w>
per cer</w>
peluch eux</w>
pel et</w>
pein tures</w>
pei gne</w>
pe lage</w>
pav és</w>
pav illon</w>
patri ck</w>
pati nant</w>
pati nage</w>
patau gent</w>
patau geant</w>
patau ge
patauge oire</w>
past èque</w>
passi on</w>
pas teur</w>
parten aire</w>
parallè lement</w>
parachuti ste</w>
par ka</w>
par e</w>
par e-
par celle</w>
paper asse</w>
pan y</w>
pan n
pann euse</w>
pan da</w>
pal our
palour des</w>
pa pillons</w>
pa ble</w>
p se</w>
p ains</w>
ow n</w>
ornem en
origin aire</w>
orien taux</w>
orien tales</w>
ordin aires</w>
ordin aire</w>
or age</w>
op posée</w>
on ei
onei ge</w>
on d
ond ul
ombra gé</w>
om étri
ologi que</w>
ol lie</w>
ok é</w>
oi gnant</w>
oi es</w>
offici els</w>
oeu vre</w>
occu pée</w>
occu pé</w>
obser vé</w>
obser v
o tes</w>
o pinions</w>
o ne</w>
né tiquement</w>
nouve lles</w>
nouve l</w>
nourri ssant</w>
nor mes</w>
nom bres</w>
no tre</w>
no te</w>
no eu
nive aux</w>
nin tendo</w>
ni es</w>
neig eux</w>
navigu ent</w>
nation aux</w>
nat own</w>
na ble</w>
n écess
n y</w>
n ing</w>
n ave
n amique</w>
mû r</w>
mê lent</w>
mélan ger</w>
mélan gent</w>
médié vaux</w>
médié val</w>
médi tant</w>
médi cale</w>
mécani cien</w>
mé ga
méga phone</w>
mé dai
médai lles</w>
mé can
mécan ique</w>
mâ le</w>
mus cu
muscu lation</w>
multi ples</w>
mu stan
mu scles</w>
mou sine</w>
mou se</w>
mou s
mou lants</w>
mou lante</w>
mou che</w>
motocy cli
motocy clette</w>
moto- cross</w>
mot oneige</w>
mor i
mon ster</w>
mol let</w>
mol le</w>
moi nes</w>
mo tion</w>
mo squée</w>
mo saïque</w>
mo que</w>
mo i</w>
mm er</w>
mix eur</w>
mir oirs</w>
mi- hauteur</w>
mi tés</w>
mex ique</w>
mes sage</w>
menui serie</w>
men us</w>
men diant</w>
meill eure</w>
me e
mee ting</w>
massu es</w>
masculi n</w>
mari ach
mariach i</w>
marathoni ens</w>
mar k</w>
mar k
mark et</w>
mar ie</w>
mar e</w>
mar ais</w>
maquill ées</w>
maquill er</w>
manœu vrant</w>
manu els</w>
manne quins</w>
man que</w>
man ie</w>
maill et</w>
mag iques</w>
mag i
magi cien</w>
ma s</w>
ma chette</w>
ma c</w>
m ènent</w>
m y
m p
m oire</w>
m il
m eurs</w>
m all
mall ette</w>
lé z
lé ger</w>
lux u
lux e</w>
lut tant</w>
lou che</w>
lot erie</w>
longu eur</w>
loc aux</w>
lo ve</w>
lo com
li ts</w>
li ster</w>
li ns</w>
li mousine</w>
li esse</w>
li es</w>
li c</w>
lesquel s</w>
le- même</w>
le y</w>
le i</w>
le go</w>
le cture</w>
le cteur</w>
lave- vaisselle</w>
lanc és</w>
lanc ée</w>
lan cer
lam e</w>
la y-up</w>
la veur</w>
la tin
la s</w>
la k
lak ers</w>
l'é char
l'échar pe</w>
l'é car
l'uni sson</w>
l'en cou
l'encou ragent</w>
l'ar ène</w>
l'ar gile</w>
l'al cool</w>
l' équipement</w>
l' échelle</w>
l' ouverture</w>
l' or</w>
l' oiseau</w>
l' impres
l'impres sion</w>
l' immeuble</w>
l' hôtel</w>
l' hôpital</w>
l' hiver</w>
l' entretien</w>
l' entre
l' entraîneur</w>
l' endroit</w>
l' automne</w>
l' arrêt</w>
l' ancien</w>
l' an
l' alpiniste</w>
l' affiche</w>
l' a</w>
l âché</w>
l oin
l enti
lenti lle</w>
l en
len tement</w>
l em
l ate
late x</w>
l aiss
kimon o</w>
ki tty</w>
ki es</w>
kar a
kara oké</w>
k en
ju ge</w>
journali ste</w>
jou r
jong leur</w>
jon ché</w>
joli ment</w>
jogg eurs</w>
jo ker</w>
jo e</w>
ja ck
ja b</w>
j er
is me</w>
is land</w>
intéres santes</w>
inté gr
interview e</w>
interagi ssant</w>
install ées</w>
instal ler</w>
insoli te</w>
ins piration</w>
incroya ble</w>
incon nu</w>
incli née</w>
incli nable</w>
inachev ée</w>
in trigué</w>
in o
in n</w>
in dex</w>
impri mée</w>
imm er
immer gé</w>
im péri
im pro
im portante</w>
im portant</w>
illumin ée</w>
ign or
ig n</w>
idi ot</w>
i x</w>
i ssent</w>
i se</w>
i rri
i m</w>
i enne</w>
i cots</w>
hy dr
hu ttes</w>
hu sky</w>
hors- bord</w>
horlo ge</w>
horiz on
hol lister</w>
hispan iques</w>
hi stoire</w>
hi o</w>
her o</w>
hawaï en</w>
har na
har icots</w>
han gar</w>
habill er</w>
habi t</w>
h ui
h il
h el
gé ométri
guirlan des</w>
gui tar</w>
guer rier</w>
gu ée</w>
grill ades</w>
gri gno
grigno te</w>
grenou ille</w>
grat te-ciel</w>
graphi que</w>
grand- mère</w>
grand s-
gra ve</w>
gr ains</w>
gou dr
goudr onnée</w>
gon flé</w>
gon fl
go sse</w>
gn ets</w>
gli ssent</w>
gla ç
gg y</w>
ger eusement</w>
ge mment</w>
gau f
garde- corps</w>
gar des</w>
gar den</w>
galo pe</w>
ga y</w>
g è
g raines</w>
g ot</w>
g i</w>
g ham</w>
g at
g age</w>
fré nétiquement</w>
fris ée</w>
fri te</w>
fre es
frap pés</w>
fran ges</w>
fran c</w>
fr ustré</w>
fr aise</w>
fourni tures</w>
fourg on</w>
fou illant</w>
fou gères</w>
form ations</w>
for te</w>
for mé</w>
for mant</w>
fonc ées</w>
fon s</w>
fol le</w>
fléch ettes</w>
flou s</w>
flot teurs</w>
flot teur</w>
fleuri s</w>
flam boyant</w>
fla mme</w>
fl û
fl âne</w>
fl o
figuri nes</w>
fi èrement</w>
ffe e</w>
ff e</w>
feuill ages</w>
feu illage</w>
fer rovi
fer mée</w>
faç onne</w>
fau sse</w>
fas t</w>
fam illes</w>
fai tes</w>
fac teur</w>
fabri qué</w>
fa vori
fa ci
f ûts</w>
f éro
f lic</w>
f fons</w>
extré mités</w>
expérimen té</w>
explor ateur</w>
explor ant</w>
exper t</w>
exi on</w>
exci tant</w>
exam en</w>
ex o
ex em
eur re</w>
eu x-
espè ce</w>
espagno le</w>
espa gne</w>
escri meurs</w>
escar pée</w>
es trade</w>
es p
es ca
esca beau</w>
er am
envelop pe</w>
entrelac és</w>
enterr é</w>
enregistr euse</w>
ennei gés</w>
enflamm é</w>
encou rage</w>
encad rées</w>
en chaî
employ ées</w>
employ ée</w>
empil és</w>
emmitou fl
embar cation</w>
em pêcher</w>
em pile</w>
el le-même</w>
ei n</w>
ei gnent</w>
effe ts</w>
eff rayée</w>
e k
dî nent</w>
détend re</w>
désor dre</w>
désor donné</w>
désarçonn er</w>
déploy é</w>
dénei ger</w>
délici euse</w>
délabr ée</w>
déjeu nant</w>
dégui ser</w>
découp és</w>
décor atif</w>
décor ant</w>
déci der</w>
déci dent</w>
déball ant</w>
dé tr
dé tourne</w>
dé tournant</w>
dé ta
dé roulent</w>
dé roule</w>
dé rape</w>
dé pri
dé passer</w>
dé passe</w>
dé panneuse</w>
dé neige</w>
dé mène</w>
dé mo
dé gag
dé formée</w>
dé file</w>
dé es</w>
dé di
dé cou
dé chaî
dy namique</w>
drib bl
dri ble</w>
drap ée</w>
dou c
douc ement</w>
do s-nu</w>
do jo</w>
diver tissant</w>
distribu ant</w>
distri b
distrib ue</w>
dis ques</w>
dis per
diri gés</w>
direc tement</w>
diplô me</w>
din des</w>
diffi cile</w>
di van</w>
di re</w>
di rait</w>
di n</w>
di le</w>
di eu</w>
di er</w>
di ennes</w>
dessi nées</w>
dessi nent</w>
des sus-
des serts</w>
des sert</w>
des ign</w>
denti ste</w>
de z</w>
de voirs</w>
dans eur</w>
dan gereusement</w>
dal mati
da tion</w>
d'étudi er</w>
d'é vénement</w>
d'é viter</w>
d'é pice</w>
d'é normes</w>
d'é co
d'in formation</w>
d'an neaux</w>
d'al gues</w>
d' u
d' où</w>
d' or</w>
d' oklahoma</w>
d' observer</w>
d' intérieur</w>
d' instrument</w>
d' extérieur</w>
d' entrée</w>
d' enfant</w>
d' aéroport</w>
d' aver
d'aver tissement</w>
d' atterrir</w>
d' athlètes</w>
d' alimen
d'alimen tation</w>
d' ag
d'ag ili
d' activités</w>
d' acier</w>
d' acheteurs</w>
d y</w>
d ram
d ou</w>
d h
d gers</w>
d d
d an</w>
célé b
céléb rer</w>
cé ramique</w>
cy gnes</w>
cy cla
cycla ble</w>
cupca kes</w>
cupca ke</w>
cul ti
cul aires</w>
cueill ant</w>
crê pes</w>
cro cs</w>
cro co
croco dile</w>
cri s
cre vettes</w>
cr ânes</w>
cr uche</w>
cow- girl</w>
cow boys</w>
couv rir</w>
coutu rière</w>
coussi ns</w>
cour onne</w>
coul oirs</w>
cou teaux</w>
cou sant</w>
cou li
cou ette</w>
cornemu ses</w>
cor é
cor tège</w>
cor rectement</w>
coo kies</w>
contrô ler</w>
contrac tant</w>
contempl ant</w>
conser ves</w>
confor tablement</w>
condi tions</w>
cond uite</w>
concentr és</w>
con çu</w>
con vention</w>
con tin
con sul
con fu
con ey</w>
con cierge</w>
con ces
con ce
compé tences</w>
commerç ante</w>
commerci ale</w>
commer ce</w>
comm unique</w>
com prend</w>
com prenant</w>
com pany</w>
com pagne</w>
color ier</w>
coll ey</w>
coiff ée</w>
coi n
coi ffer</w>
co q</w>
co mique</w>
co lis</w>
classi ques</w>
clai rière</w>
cl asseur</w>
cir que</w>
cier ges</w>
ci té</w>
ci toyens</w>
ci rant</w>
ci eux</w>
ci e</w>
ci de</w>
châ tai
chu cho
chucho te</w>
cho ns</w>
chirurgi cal</w>
chi natown</w>
chi ffons</w>
chev alier</w>
chau dement</w>
char gée</w>
chan teurs</w>
cham bres</w>
chal umeau</w>
cha pelet</w>
ch œur</w>
ch asser</w>
ch as
ch arri
ch ages</w>
cer f</w>
cen taines</w>
cavali ère</w>
cau se</w>
casser oles</w>
carre lée</w>
cares ser</w>
car net</w>
car dia
car d</w>
car ac
carac tères</w>
capi taine</w>
cap u
cap es</w>
cana diens</w>
can ine</w>
camar ades</w>
cam eram
cali for
cal eçon</w>
cai ssière</w>
cahi ers</w>
cad res</w>
cad dies</w>
ca ke</w>
ca cher</w>
ca chent</w>
c ées</w>
c tique</w>
c tes</w>
c roupier</w>
c rampons</w>
c eux</w>
c esse</w>
c entrée</w>
c ages</w>
bû cher
bû che</w>
béné voles</w>
bé rets</w>
bâ ches</w>
bur q
bur ger</w>
bun ker</w>
bu sin
bu ri
bu ggy</w>
bu d
bronz ant</w>
broch ettes</w>
brill ent</w>
bran chages</w>
br assi
brassi ère</w>
br asse</w>
bow l</w>
boutonn ée</w>
boulever sée</w>
boulever sé</w>
bou tiques</w>
bou s</w>
bou que
bou ill
bou dd
bou cli
bou chée</w>
bot te</w>
bor dures</w>
bor der</w>
bong o</w>
bon dissant</w>
bo te</w>
bo ok</w>
bo dy
bo a</w>
bm w</w>
bles sée</w>
bl ème</w>
bitu me</w>
bin s</w>
bijou terie</w>
ber lin</w>
ber gers</w>
bei gnets</w>
be c</w>
be ag
beag le</w>
be ach
bavar der</w>
bat tue</w>
bat tu</w>
bas es</w>
bas culer</w>
barbi e</w>
barb elés</w>
bar man</w>
bar bote</w>
ban k</w>
bam bous</w>
ball ots</w>
balanç oires</w>
balan celle</w>
bala yer</w>
bala ye</w>
bal aient</w>
bai ssant</w>
bai lle</w>
bai gn
bagar re</w>
bac s</w>
ba le</w>
b ille</w>
b eurre</w>
b el
b arri
aéri en</w>
aven ture</w>
avant- bras</w>
avan tage</w>
avan cer</w>
auto collants</w>
au- dessous</w>
au te</w>
au quel</w>
au be</w>
attra pé</w>
attra pent</w>
atta chant</w>
atta bl
athlé tiques</w>
at tire</w>
astron aute</w>
assistan te</w>
assi sent</w>
assembl ée</w>
ass ai
asper gé</w>
as sée</w>
as sortis</w>
as sorti</w>
as semble</w>
as s</w>
artisan ale</w>
arrê tés</w>
arran geant</w>
arran ge</w>
armu re</w>
argen tés</w>
ar més</w>
appu yant</w>
appréci er</w>
apparaî t</w>
ap prennent</w>
ap prendre</w>
ani mées</w>
ang els</w>
an neaux</w>
amérin diens</w>
ami cale</w>
ambu lance</w>
am pli</w>
am phi
allu mé</w>
allu mer</w>
allem ands</w>
al titude</w>
ai r
agrip pe</w>
agrip pant</w>
agricul teurs</w>
ag ue</w>
ag res
aff al
ad roitement</w>
ad a</w>
accélé rant</w>
accom pagne</w>
acciden té</w>
acc rocher</w>
acc e
ac cueille</w>
ac cou
ac corde</w>
abe ille</w>
aban donné</w>
a mment</w>
a m</w>
a i</w>
a bon
2 4</w>
0 8</w>
ô me</w>
ê tes-
éven tuellement</w>
éven tails</w>
évacu er</w>
étudi antes</w>
étran gères</w>
étran gère</w>
étr er</w>
étr eignant</w>
éti rem
étirem ents</w>
étal ant</w>
ét eignent</w>
éro s</w>
équi tation</w>
équi pée</w>
éprou vette</w>
éping lés</w>
épar se</w>
ép ui
épui sé</w>
ép aiss
épaiss eurs</w>
énergi quement</w>
émerve illée</w>
élé ment</w>
éle vé</w>
éle vage</w>
élabor ée</w>
élabor é</w>
él er
éjec tée</w>
écu r
écur eu
écureu il</w>
écri ts</w>
écri teau</w>
écou teur</w>
écoss aises</w>
éclai rés</w>
éclabou ssé</w>
écla t</w>
écl e
écle ctique</w>
écl at
échantill ons</w>
échan geant</w>
échafau d</w>
éch ap
écar tées</w>
é viter</w>
é tire</w>
é teindre</w>
é tabl
établ i</w>
é sus</w>
é rale</w>
é plu
éplu chant</w>
é peron</w>
é motion</w>
é ma</w>
é li
é gy
égy p
é di
é cras
è tre</w>
è ches</w>
çonn erie</w>
ç onne</w>
â chée</w>
à- vous</w>
zz i</w>
z une</w>
z ig
zig z
zigz agu
zigzagu er</w>
z els</w>
z ar</w>
z aine</w>
z -
ympi ques</w>
ym ca</w>
yan ke
yanke es</w>
y sty
ysty rène</w>
y oy
yoy o</w>
y o</w>
y ette</w>
xy gène</w>
x 4</w>
wor l
worl d</w>
won der</w>
wo k</w>
wi ffer</w>
whe els</w>
wel ls</w>
wel co
welco me</w>
we e
was a
wasa ki</w>
walk man</w>
wa ys</w>
w ing</w>
w es
wes ter
wester n</w>
w ei
wei ser</w>
vê tr
vêtr és</w>
vélo taxi</w>
vé té
vété rans</w>
vol ée</w>
vol ti
volti geur</w>
vol ter</w>
vol aille</w>
voi tu
voitu rette</w>
voi si
vo tre</w>
viv ante</w>
visi teurs</w>
visi blement</w>
visa gent</w>
violon istes</w>
viol ence</w>
ving taine</w>
vietnami en</w>
vieill otte</w>
vieill ard</w>
vic tor
vi vent</w>
vi vant</w>
vi ser</w>
vi sant</w>
vi re
vire volter</w>
vi kings</w>
vi gno
vi gne</w>
vi es</w>
vi dé
vi de-
vide- g
vide-g ren
vide-gren ier</w>
vi cti
victi me</w>
vi an
vian des</w>
vi al</w>
veu lent</w>
ver sion</w>
ver sale</w>
ver glacée</w>
ver glacé</w>
vend euse</w>
ven ti
ve sti
ve s
ves tons</w>
ve lu
ve lle</w>
vapor isée</w>
vap eur</w>
va ts</w>
va se</w>
v rent</w>
v re
vre té</w>
v rai</w>
v ois</w>
v o</w>
v illon</w>
v ati
v as
v ales</w>
v ais</w>
v ain
vain cre</w>
v ador</w>
uri noir</w>
urgen ti
urgenti stes</w>
universi taires</w>
uni ques</w>
uni e</w>
ul k</w>
ui de</w>
u te</w>
u sa
u re
u p
u nau
unau taire</w>
u ge</w>
u g
u demment</w>
téri eures</w>
téri elle</w>
télé viseur</w>
télé ph
téléph érique</w>
tur qu
tur eux</w>
tu re
tu niques</w>
tu eusement</w>
tu euse</w>
tu es</w>
tu de</w>
tru elle</w>
trouv é</w>
trot toirs</w>
trico ts</w>
tri ture</w>
tri stes</w>
tri om
tri color
tricolor e</w>
tri ces</w>
tri bale</w>
tri bal
tribal es</w>
tri b
trib aux</w>
tres sé</w>
tren taine</w>
trem pli
trempli n</w>
traî née</w>
traî neaux</w>
traî ne</w>
trave st
travest i</w>
travaill euses</w>
trav ag
transpor ts</w>
transpor ter</w>
transpor tent</w>
trans versale</w>
trans pire</w>
trans parents</w>
trans par
tran quill
tranquill ement</w>
tra jet</w>
tra ction</w>
tra cer</w>
tr è
tr i</w>
tr ein
trein t</w>
tout- terrain</w>
tournoi e</w>
tournes ol</w>
tourn és</w>
tourn e-
tourne- disque</w>
touri sme</w>
tou ché</w>
tot alement</w>
tor y</w>
tor till
tortill as</w>
tor si
tond ue</w>
tomb ées</w>
toi ts</w>
to r</w>
to ast</w>
tiss ée</w>
tis h</w>
tir oir</w>
tir euse</w>
tionn elle</w>
tim e-
time- la
time-la pse</w>
till ant</w>
ti ème</w>
ti ves</w>
ti quités</w>
ti quer</w>
ti nu
ti mor
timor e</w>
ti mité</w>
ti m</w>
ti lles</w>
ti cules</w>
ti ck
tick ets</w>
ti ce</w>
tho mas</w>
th ème</w>
th e
terr ori
terr ant</w>
terr aine</w>
termin us</w>
ter ri
ter res</w>
ter ne</w>
ter gent</w>
ten tative</w>
ten ance</w>
te ils</w>
te e-
tee- ball</w>
te am</w>
tau reaux</w>
tatou er</w>
tar tes</w>
tar ds</w>
tan tes</w>
tan s</w>
tan k</w>
tan de
tande m</w>
tambouri ns</w>
tal us</w>
tal lu
tallu rgi
tallurgi ste</w>
tal ki
talki e-
talkie- walkie</w>
tal k
tal i
tal ement</w>
taill é</w>
taill eur</w>
tai lles</w>
tag gée</w>
tach et
tabl ette</w>
ta tiquement</w>
ta tif</w>
ta po
tapo te</w>
ta mment</w>
ta gué</w>
ta che</w>
t ôle</w>
t v</w>
t lem
t eux</w>
t euses</w>
t este</w>
t es
t en</w>
t elles</w>
séri eux</w>
séqu oi
séquoi a</w>
sépar ées</w>
sépar e</w>
sé ché</w>
sèche- cheveux</w>
synchron i
synchroni sées</w>
symbo les</w>
swe et</w>
swe a
swea ts</w>
sw ing</w>
suspen sion</w>
sus hi
sushi s</w>
surveill er</w>
surveill ance</w>
surplomb ent</w>
surdimensionn é</w>
sur é</w>
sur volent</w>
sur vole</w>
sur pris</w>
sur gi
sur chargé</w>
super -
super- h
super-h éros</w>
sud- est</w>
suc c
succ ès</w>
su spec
suspec t</w>
su péri
supéri eur</w>
su ng</w>
su mmer</w>
su d</w>
su ce</w>
stupi de</w>
str ing</w>
sti qu
stiqu aire</w>
stationn ées</w>
stationn aire</w>
star ting</w>
sta l</w>
sta f
sta bili
st .</w>
ssi er</w>
ss ées</w>
ss eaux</w>
ss ar
ssar des</w>
spéci ale</w>
sprink ler</w>
sponsor isée</w>
spi tal
sph ères</w>
spar e</w>
souri res</w>
sour ces</w>
sour ce</w>
souff lé</w>
sou th</w>
sou terraine</w>
sou terrain</w>
sou tenu</w>
sou levées</w>
sou dent</w>
sou dant</w>
sou coupe</w>
sonn ette</w>
som p
som nol
sol é</w>
sol s</w>
sol aire</w>
soign ée</w>
soi ns</w>
soi gne</w>
soi ent</w>
soi e</w>
soci al</w>
so mmes</w>
snowboar ds</w>
sno op
snoop y</w>
slalo me</w>
sl ei
slei gh</w>
skim board</w>
ski euse</w>
ski es</w>
skateboar der</w>
sk et
sket ch</w>
sk e</w>
siro p</w>
sinu eux</w>
sign al</w>
sig ni
si ère</w>
si ons</w>
si gnant</w>
si fs</w>
si ens</w>
sho ot</w>
sham pooing</w>
sha s</w>
ses sion</w>
ses pé
sespé ré
sespéré ment</w>
ses am
sesam e</w>
serv i</w>
serpil lière</w>
serpen tins</w>
ser rées</w>
ser rure</w>
sen tir</w>
sen tant</w>
semi- remorque</w>
sembl er</w>
sembl ables</w>
sel lés</w>
sei n</w>
secouri ste</w>
secon d</w>
sea haw
seahaw ks</w>
se- neige</w>
se vel
se ils</w>
se g
seg way</w>
sculp ter</w>
scol aires</w>
sco ob
scin tillante</w>
sci er</w>
sci ent</w>
sci ence</w>
sc uits</w>
sc ra
scra b
scrab ble</w>
sc o</w>
saxophoni stes</w>
saxophoni ste</w>
saxopho nes</w>
sav onneuse</w>
sauve teur</w>
sauci sse</w>
sau ver</w>
sau teur</w>
sau poudre</w>
sau f</w>
sang les</w>
sandwi ches</w>
samoura ï</w>
sam sung</w>
sa tions</w>
s'élan cent</w>
s'échauff ent</w>
s'ébrou ent</w>
s'ébrou ant</w>
s'é tirent</w>
s'é tirant</w>
s'é tend</w>
s'occu per</w>
s'incli nent</w>
s'ex hi
s'entraî ner</w>
s'enla çant</w>
s'enla cer</w>
s'endor mant</w>
s'em pare</w>
s'asse oir</w>
s'appro chant</w>
s'ap pliquant</w>
s' échappe</w>
s' op
s'op pose</w>
s' installer</w>
s' habiller</w>
s' ha
s'ha bille</w>
s' essuie</w>
s' entr
s' enf
s' ef
s' al
s'al longe</w>
s' aider</w>
s' agite</w>
s' agi
s œurs</w>
s wiffer</w>
s un</w>
s téri
s tones</w>
s ter
s sements</w>
s pri
s pin
spin ning</w>
s pag
spag h
s nor
snor ke
snorke ling</w>
s nac
snac k</w>
s ille</w>
s ili
s ha</w>
s exe</w>
s ette</w>
s chi
s ait</w>
s ais</w>
s ai
rê ter</w>
réuni t</w>
rétro- projecteur</w>
rési denti
résidenti el</w>
répon ses</w>
répar ateur</w>
réfugi és</w>
réfugi ent</w>
réfléchi ssent</w>
réfléchi r</w>
réfl exion</w>
rédi geant</w>
récu pèrent</w>
récré atif</w>
réconfor te</w>
réconfor tant</w>
récol tés</w>
récol tant</w>
récep tionn
réagi ssent</w>
ré ti
ré sille</w>
ré seau</w>
ré pan
ré jou
ré g
ré fér
référ ence</w>
ré création</w>
ré chauff
réchauff ent</w>
ré action</w>
rui ne</w>
rugbym en</w>
rugbym an</w>
ru m</w>
rri tos</w>
rou tine</w>
rou tier</w>
rou tes</w>
rou ille</w>
rou ge-
rouge- orangé</w>
rou et</w>
ron din</w>
rock er</w>
rocaill euse</w>
ro u</w>
ro r</w>
ro quet</w>
ro let</w>
ro l
rol ling</w>
ro dgers</w>
ro cks</w>
rlan d
ris que</w>
rin çant</w>
ridi cules</w>
ri stes</w>
ri ssant</w>
ri l</w>
ri can</w>
ri b
rib bon</w>
reç u</w>
reç oi
reçoi vent</w>
retrai te</w>
retourn er</w>
retourn ent</w>
restau r
restaur ants</w>
respec tivement</w>
respec tifs</w>
res sources</w>
res sort</w>
res sembler</w>
res pon
respon sable</w>
res pirer</w>
res pirat
respirat oire</w>
renver ser</w>
ren omm
ren du</w>
ren contr
rempli es</w>
remor queur</w>
rem porter</w>
rem bar
rembar de</w>
rejoin dre</w>
regi stre</w>
regard ée</w>
regard s</w>
regar dés</w>
regar dées</w>
regar dez</w>
rectangu laire</w>
recou vrent</w>
reconstitu tion</w>
rebon dissent</w>
re z</w>
re vient</w>
re trouvent</w>
re trait</w>
re tour</w>
re tirées</w>
re tirée</w>
re tirant</w>
re tard</w>
re péré</w>
re prenant</w>
re por
repor tage</w>
re passer</w>
re passe</w>
re montant</w>
re levé</w>
re levant</w>
re cy
recy c
recyc lage</w>
ray o
rayo la</w>
rat é</w>
rassembl é</w>
rassembl er</w>
ras ée</w>
rappro cher</w>
rappro chant</w>
rap portant</w>
rap port</w>
ran tes</w>
ran te</w>
ran ien</w>
ran ch</w>
ran ce</w>
ram pent</w>
ram pant</w>
ram assé</w>
rai son</w>
rafraîchi ssements</w>
rafraîchi ssante</w>
raff ute</w>
raff in
raf e</w>
ra w
ra ci
raci nes</w>
ra ble</w>
r ôle</w>
r â
r way</w>
r oie</w>
r eur</w>
r erie</w>
r attraper</w>
quoti diennes</w>
quill ages</w>
quat er
quater back</w>
quar te</w>
qu' à</w>
qu' en</w>
qu eu
queu es</w>
qu ets</w>
qu asi
quasi ment</w>
qu as
qu ants</w>
qu ante</w>
qu ad
pén étrer</w>
pén ètre</w>
péli can</w>
pédal ent</w>
pé tri
pé rer</w>
pé nombre</w>
pé ni
péni blement</w>
pé des
pédes tre</w>
pé dales</w>
pè des</w>
pâ tu
pâ ti
py l
pyl ô
pupi tres</w>
pun ch</w>
pulvéri sent</w>
pui ssant</w>
pu s</w>
préserv atifs</w>
présentat eur</w>
présen tes</w>
présen ce</w>
prépar ée</w>
prépar é</w>
prél asse</w>
précipi tent</w>
pré sent</w>
pré -
proté geant</w>
protège- oreilles</w>
protè gent</w>
protes ter</w>
protes tent</w>
prote c
propri été</w>
pron once</w>
promen é</w>
promen eur</w>
progra mmes</w>
pro jette</w>
pro du
produ ction</w>
pro ces
pro blème</w>
pro -
prin cipal</w>
prin cesse</w>
prin ces
pri mi
primi tif</w>
pres sion</w>
pres se-
prati quement</w>
prati quants</w>
pr êtes</w>
pr udemment</w>
pr eu
preu ve</w>
pr ess
press o</w>
pow er</w>
pour suivi</w>
pour suivent</w>
poudr euse</w>
pou vons</w>
pou lies</w>
pou lie</w>
pou les</w>
pou le</w>
pou d
pot oir</w>
post- it</w>
positionn é</w>
posi tions</w>
pos ture</w>
pos tales</w>
pos ants</w>
porte- vélos</w>
porte- mon
porte-mon n
porte-monn aie</w>
por tu
por tait</w>
por cel
pop si
pollu tion</w>
pol ystyrène</w>
poin tée</w>
poin ts</w>
poin tent</w>
poign et</w>
poign ar
poi v
poi trines</w>
poi rier</w>
po sta
po ssi
po mé
pomé ranien</w>
po mm
po k
pok em
pokem on</w>
po chette</w>
pli ée</w>
pli ent</w>
plat es</w>
plan tent</w>
plan chiste</w>
plaisan tant</w>
plaisan ci
plaisanci ers</w>
plaisan ce</w>
pla çant</w>
pla y</w>
pla y
pla queur</w>
pla cé</w>
pla ces</w>
pla cer</w>
pla cent</w>
pit bull</w>
pissen lit</w>
pique- ni
pingou ins</w>
pilo tage</w>
pil ot
pian iste</w>
pi ton</w>
pi ro
pi o
pi c
photographi que</w>
photographi ant</w>
phot o
pharma cie</w>
percu té</w>
per roquet</w>
per met</w>
per le</w>
per dant</w>
per cée</w>
per chiste</w>
pen ske</w>
pen n</w>
pen du</w>
pen dante</w>
peluch euses</w>
peluch euse</w>
pellet ées</w>
pellet er</w>
pel otes</w>
pein tres</w>
pe ace</w>
paysa ger</w>
pau vreté</w>
pau vres</w>
patrou illent</w>
patrio tique</w>
patin euses</w>
patien ce</w>
pati ents</w>
passionn és</w>
passionn ément</w>
passa gère</w>
pass ées</w>
pass oire</w>
pas tel</w>
particu lière</w>
parti tions</w>
parti ment</w>
pare- brise</w>
parallè le</w>
paral ympiques</w>
parachuti sme</w>
par ty</w>
par terre</w>
par tent</w>
par ois</w>
par is</w>
par fu
par dessus</w>
par court</w>
par courent</w>
par c
parc mètre</w>
par ap
parap ente</w>
panor ama</w>
pan tes</w>
pan ad
panad as</w>
pan a
pana che</w>
pal ettes</w>
pai ssent</w>
paga yer</w>
pad dle</w>
pa vant</w>
pa trons</w>
pa quets</w>
pa d</w>
pa b
pab st</w>
p tant</w>
p rière</w>
p per
p es
pes ant</w>
p aux</w>
ow s</w>
ow a</w>
ouv rent</w>
ou x</w>
ou vertes</w>
ou t
oti ves</w>
ot hi
ornemen tal</w>
origi nes</w>
ori oles</w>
ori ente</w>
organi sé</w>
organi sent</w>
organi se</w>
organi sation</w>
or teils</w>
or gue</w>
or esc
or e
or ateur</w>
or ak</w>
or a
op en</w>
onn ettes</w>
onn ant</w>
ondul és</w>
on ni
on -
olo gues</w>
oi tation</w>
oi ses</w>
off rant</w>
off er
oc re</w>
oc k</w>
oc e
oc ci
occi den
observ ateurs</w>
obser vation</w>
ob er
o xford</w>
o vi
o ping</w>
o mique</w>
o eil</w>
o bli
négli gée</w>
négli gemment</w>
nécess aire</w>
né on</w>
né go
né er
néer lan
néerlan d
nu ances</w>
nouveau- mexique</w>
nourri ssent</w>
nourri r</w>
nou no
